[PAD] 28999
[unused1] 28998
[unused2] 28997
[unused3] 28996
[unused4] 28995
[unused5] 28994
[unused6] 28993
[unused7] 28992
[unused8] 28991
[unused9] 28990
[unused10] 28989
[unused11] 28988
[unused12] 28987
[unused13] 28986
[unused14] 28985
[unused15] 28984
[unused16] 28983
[unused17] 28982
[unused18] 28981
[unused19] 28980
[unused20] 28979
[unused21] 28978
[unused22] 28977
[unused23] 28976
[unused24] 28975
[unused25] 28974
[unused26] 28973
[unused27] 28972
[unused28] 28971
[unused29] 28970
[unused30] 28969
[unused31] 28968
[unused32] 28967
[unused33] 28966
[unused34] 28965
[unused35] 28964
[unused36] 28963
[unused37] 28962
[unused38] 28961
[unused39] 28960
[unused40] 28959
[unused41] 28958
[unused42] 28957
[unused43] 28956
[unused44] 28955
[unused45] 28954
[unused46] 28953
[unused47] 28952
[unused48] 28951
[unused49] 28950
[unused50] 28949
[unused51] 28948
[unused52] 28947
[unused53] 28946
[unused54] 28945
[unused55] 28944
[unused56] 28943
[unused57] 28942
[unused58] 28941
[unused59] 28940
[unused60] 28939
[unused61] 28938
[unused62] 28937
[unused63] 28936
[unused64] 28935
[unused65] 28934
[unused66] 28933
[unused67] 28932
[unused68] 28931
[unused69] 28930
[unused70] 28929
[unused71] 28928
[unused72] 28927
[unused73] 28926
[unused74] 28925
[unused75] 28924
[unused76] 28923
[unused77] 28922
[unused78] 28921
[unused79] 28920
[unused80] 28919
[unused81] 28918
[unused82] 28917
[unused83] 28916
[unused84] 28915
[unused85] 28914
[unused86] 28913
[unused87] 28912
[unused88] 28911
[unused89] 28910
[unused90] 28909
[unused91] 28908
[unused92] 28907
[unused93] 28906
[unused94] 28905
[unused95] 28904
[unused96] 28903
[unused97] 28902
[unused98] 28901
[unused99] 28900
[UNK] 28899
[CLS] 28898
[SEP] 28897
[MASK] 28896
[unused100] 28895
[unused101] 28894
! 28893
" 28892
# 28891
$ 28890
% 28889
& 28888
' 28887
( 28886
) 28885
* 28884
+ 28883
, 28882
- 28881
. 28880
/ 28879
0 28878
1 28877
2 28876
3 28875
4 28874
5 28873
6 28872
7 28871
8 28870
9 28869
: 28868
; 28867
< 28866
= 28865
> 28864
? 28863
@ 28862
A 28861
B 28860
C 28859
D 28858
E 28857
F 28856
G 28855
H 28854
I 28853
J 28852
K 28851
L 28850
M 28849
N 28848
O 28847
P 28846
Q 28845
R 28844
S 28843
T 28842
U 28841
V 28840
W 28839
X 28838
Y 28837
Z 28836
[ 28835
\ 28834
] 28833
^ 28832
_ 28831
` 28830
a 28829
b 28828
c 28827
d 28826
e 28825
f 28824
g 28823
h 28822
i 28821
j 28820
k 28819
l 28818
m 28817
n 28816
o 28815
p 28814
q 28813
r 28812
s 28811
t 28810
u 28809
v 28808
w 28807
x 28806
y 28805
z 28804
{ 28803
| 28802
} 28801
~ 28800
¡ 28799
¢ 28798
£ 28797
¥ 28796
§ 28795
¨ 28794
© 28793
ª 28792
« 28791
¬ 28790
® 28789
° 28788
± 28787
² 28786
³ 28785
´ 28784
µ 28783
¶ 28782
· 28781
¹ 28780
º 28779
» 28778
¼ 28777
½ 28776
¾ 28775
¿ 28774
À 28773
Á 28772
Â 28771
Ä 28770
Å 28769
Æ 28768
Ç 28767
È 28766
É 28765
Í 28764
Î 28763
Ñ 28762
Ó 28761
Ö 28760
× 28759
Ø 28758
Ú 28757
Ü 28756
Þ 28755
ß 28754
à 28753
á 28752
â 28751
ã 28750
ä 28749
å 28748
æ 28747
ç 28746
è 28745
é 28744
ê 28743
ë 28742
ì 28741
í 28740
î 28739
ï 28738
ð 28737
ñ 28736
ò 28735
ó 28734
ô 28733
õ 28732
ö 28731
÷ 28730
ø 28729
ù 28728
ú 28727
û 28726
ü 28725
ý 28724
þ 28723
ÿ 28722
Ā 28721
ā 28720
ă 28719
ą 28718
Ć 28717
ć 28716
Č 28715
č 28714
ď 28713
Đ 28712
đ 28711
ē 28710
ė 28709
ę 28708
ě 28707
ğ 28706
ġ 28705
Ħ 28704
ħ 28703
ĩ 28702
Ī 28701
ī 28700
İ 28699
ı 28698
ļ 28697
Ľ 28696
ľ 28695
Ł 28694
ł 28693
ń 28692
ņ 28691
ň 28690
ŋ 28689
Ō 28688
ō 28687
ŏ 28686
ő 28685
Œ 28684
œ 28683
ř 28682
Ś 28681
ś 28680
Ş 28679
ş 28678
Š 28677
š 28676
Ţ 28675
ţ 28674
ť 28673
ũ 28672
ū 28671
ŭ 28670
ů 28669
ű 28668
ų 28667
ŵ 28666
ŷ 28665
ź 28664
Ż 28663
ż 28662
Ž 28661
ž 28660
Ə 28659
ƒ 28658
ơ 28657
ư 28656
ǎ 28655
ǐ 28654
ǒ 28653
ǔ 28652
ǫ 28651
Ș 28650
ș 28649
Ț 28648
ț 28647
ɐ 28646
ɑ 28645
ɔ 28644
ɕ 28643
ə 28642
ɛ 28641
ɡ 28640
ɣ 28639
ɨ 28638
ɪ 28637
ɲ 28636
ɾ 28635
ʀ 28634
ʁ 28633
ʂ 28632
ʃ 28631
ʊ 28630
ʋ 28629
ʌ 28628
ʐ 28627
ʑ 28626
ʒ 28625
ʔ 28624
ʰ 28623
ʲ 28622
ʳ 28621
ʷ 28620
ʻ 28619
ʼ 28618
ʾ 28617
ʿ 28616
ˈ 28615
ː 28614
ˡ 28613
ˢ 28612
ˣ 28611
́ 28610
̃ 28609
̍ 28608
̯ 28607
͡ 28606
Α 28605
Β 28604
Γ 28603
Δ 28602
Ε 28601
Η 28600
Θ 28599
Ι 28598
Κ 28597
Λ 28596
Μ 28595
Ν 28594
Ο 28593
Π 28592
Σ 28591
Τ 28590
Φ 28589
Χ 28588
Ψ 28587
Ω 28586
ά 28585
έ 28584
ή 28583
ί 28582
α 28581
β 28580
γ 28579
δ 28578
ε 28577
ζ 28576
η 28575
θ 28574
ι 28573
κ 28572
λ 28571
μ 28570
ν 28569
ξ 28568
ο 28567
π 28566
ρ 28565
ς 28564
σ 28563
τ 28562
υ 28561
φ 28560
χ 28559
ψ 28558
ω 28557
ό 28556
ύ 28555
ώ 28554
І 28553
Ј 28552
А 28551
Б 28550
В 28549
Г 28548
Д 28547
Е 28546
Ж 28545
З 28544
И 28543
К 28542
Л 28541
М 28540
Н 28539
О 28538
П 28537
Р 28536
С 28535
Т 28534
У 28533
Ф 28532
Х 28531
Ц 28530
Ч 28529
Ш 28528
Э 28527
Ю 28526
Я 28525
а 28524
б 28523
в 28522
г 28521
д 28520
е 28519
ж 28518
з 28517
и 28516
й 28515
к 28514
л 28513
м 28512
н 28511
о 28510
п 28509
р 28508
с 28507
т 28506
у 28505
ф 28504
х 28503
ц 28502
ч 28501
ш 28500
щ 28499
ъ 28498
ы 28497
ь 28496
э 28495
ю 28494
я 28493
ё 28492
і 28491
ї 28490
ј 28489
њ 28488
ћ 28487
Ա 28486
Հ 28485
ա 28484
ե 28483
ի 28482
կ 28481
մ 28480
յ 28479
ն 28478
ո 28477
ս 28476
տ 28475
ր 28474
ւ 28473
ְ 28472
ִ 28471
ֵ 28470
ֶ 28469
ַ 28468
ָ 28467
ֹ 28466
ּ 28465
א 28464
ב 28463
ג 28462
ד 28461
ה 28460
ו 28459
ז 28458
ח 28457
ט 28456
י 28455
כ 28454
ל 28453
ם 28452
מ 28451
ן 28450
נ 28449
ס 28448
ע 28447
פ 28446
צ 28445
ק 28444
ר 28443
ש 28442
ת 28441
، 28440
ء 28439
آ 28438
أ 28437
إ 28436
ئ 28435
ا 28434
ب 28433
ة 28432
ت 28431
ث 28430
ج 28429
ح 28428
خ 28427
د 28426
ذ 28425
ر 28424
ز 28423
س 28422
ش 28421
ص 28420
ض 28419
ط 28418
ظ 28417
ع 28416
غ 28415
ف 28414
ق 28413
ك 28412
ل 28411
م 28410
ن 28409
ه 28408
و 28407
ى 28406
ي 28405
َ 28404
ِ 28403
ٹ 28402
پ 28401
چ 28400
ک 28399
گ 28398
ہ 28397
ی 28396
ے 28395
ं 28394
आ 28393
क 28392
ग 28391
च 28390
ज 28389
ण 28388
त 28387
द 28386
ध 28385
न 28384
प 28383
ब 28382
भ 28381
म 28380
य 28379
र 28378
ल 28377
व 28376
श 28375
ष 28374
स 28373
ह 28372
ा 28371
ि 28370
ी 28369
ु 28368
े 28367
ो 28366
् 28365
। 28364
॥ 28363
আ 28362
ই 28361
এ 28360
ও 28359
ক 28358
খ 28357
গ 28356
চ 28355
ছ 28354
জ 28353
ট 28352
ত 28351
থ 28350
দ 28349
ধ 28348
ন 28347
প 28346
ব 28345
ম 28344
য 28343
র 28342
ল 28341
শ 28340
স 28339
হ 28338
় 28337
া 28336
ি 28335
ী 28334
ু 28333
ে 28332
ো 28331
্ 28330
য় 28329
க 28328
த 28327
ப 28326
ம 28325
ய 28324
ர 28323
ல 28322
வ 28321
ா 28320
ி 28319
ு 28318
் 28317
ร 28316
་ 28315
ག 28314
ང 28313
ད 28312
ན 28311
བ 28310
མ 28309
ར 28308
ལ 28307
ས 28306
ི 28305
ུ 28304
ེ 28303
ོ 28302
ა 28301
ე 28300
ი 28299
ლ 28298
ნ 28297
ო 28296
რ 28295
ს 28294
ᴬ 28293
ᴵ 28292
ᵀ 28291
ᵃ 28290
ᵇ 28289
ᵈ 28288
ᵉ 28287
ᵍ 28286
ᵏ 28285
ᵐ 28284
ᵒ 28283
ᵖ 28282
ᵗ 28281
ᵘ 28280
ᵢ 28279
ᵣ 28278
ᵤ 28277
ᵥ 28276
ᶜ 28275
ᶠ 28274
ḍ 28273
Ḥ 28272
ḥ 28271
Ḩ 28270
ḩ 28269
ḳ 28268
ṃ 28267
ṅ 28266
ṇ 28265
ṛ 28264
ṣ 28263
ṭ 28262
ạ 28261
ả 28260
ấ 28259
ầ 28258
ẩ 28257
ậ 28256
ắ 28255
ế 28254
ề 28253
ể 28252
ễ 28251
ệ 28250
ị 28249
ọ 28248
ố 28247
ồ 28246
ổ 28245
ộ 28244
ớ 28243
ờ 28242
ợ 28241
ụ 28240
ủ 28239
ứ 28238
ừ 28237
ử 28236
ữ 28235
ự 28234
ỳ 28233
ỹ 28232
ἀ 28231
ἐ 28230
ὁ 28229
ὐ 28228
ὰ 28227
ὶ 28226
ὸ 28225
ῆ 28224
ῖ 28223
ῦ 28222
ῶ 28221
‐ 28220
‑ 28219
‒ 28218
– 28217
— 28216
― 28215
‖ 28214
‘ 28213
’ 28212
‚ 28211
“ 28210
” 28209
„ 28208
† 28207
‡ 28206
• 28205
… 28204
‰ 28203
′ 28202
″ 28201
⁄ 28200
⁰ 28199
ⁱ 28198
⁴ 28197
⁵ 28196
⁶ 28195
⁷ 28194
⁸ 28193
⁹ 28192
⁺ 28191
⁻ 28190
ⁿ 28189
₀ 28188
₁ 28187
₂ 28186
₃ 28185
₄ 28184
₅ 28183
₆ 28182
₇ 28181
₈ 28180
₉ 28179
₊ 28178
₍ 28177
₎ 28176
ₐ 28175
ₑ 28174
ₒ 28173
ₓ 28172
ₕ 28171
ₖ 28170
ₘ 28169
ₙ 28168
ₚ 28167
ₛ 28166
ₜ 28165
₤ 28164
€ 28163
₱ 28162
₹ 28161
ℓ 28160
№ 28159
ℝ 28158
⅓ 28157
← 28156
↑ 28155
→ 28154
↔ 28153
⇌ 28152
⇒ 28151
∂ 28150
∈ 28149
− 28148
∗ 28147
∘ 28146
√ 28145
∞ 28144
∧ 28143
∨ 28142
∩ 28141
∪ 28140
≈ 28139
≠ 28138
≡ 28137
≤ 28136
≥ 28135
⊂ 28134
⊆ 28133
⊕ 28132
⋅ 28131
─ 28130
│ 28129
■ 28128
● 28127
★ 28126
☆ 28125
☉ 28124
♠ 28123
♣ 28122
♥ 28121
♦ 28120
♭ 28119
♯ 28118
⟨ 28117
⟩ 28116
ⱼ 28115
、 28114
。 28113
《 28112
》 28111
「 28110
」 28109
『 28108
』 28107
〜 28106
い 28105
う 28104
え 28103
お 28102
か 28101
き 28100
く 28099
け 28098
こ 28097
さ 28096
し 28095
す 28094
せ 28093
そ 28092
た 28091
ち 28090
つ 28089
て 28088
と 28087
な 28086
に 28085
の 28084
は 28083
ひ 28082
ま 28081
み 28080
む 28079
め 28078
も 28077
や 28076
ゆ 28075
よ 28074
ら 28073
り 28072
る 28071
れ 28070
ん 28069
ア 28068
ィ 28067
イ 28066
ウ 28065
エ 28064
オ 28063
カ 28062
ガ 28061
キ 28060
ク 28059
グ 28058
コ 28057
サ 28056
シ 28055
ジ 28054
ス 28053
ズ 28052
タ 28051
ダ 28050
ッ 28049
テ 28048
デ 28047
ト 28046
ド 28045
ナ 28044
ニ 28043
ハ 28042
バ 28041
パ 28040
フ 28039
ブ 28038
プ 28037
マ 28036
ミ 28035
ム 28034
ャ 28033
ュ 28032
ラ 28031
リ 28030
ル 28029
レ 28028
ロ 28027
ン 28026
・ 28025
ー 28024
一 28023
三 28022
上 28021
下 28020
中 28019
事 28018
二 28017
井 28016
京 28015
人 28014
亻 28013
仁 28012
佐 28011
侍 28010
光 28009
公 28008
力 28007
北 28006
十 28005
南 28004
原 28003
口 28002
史 28001
司 28000
吉 27999
同 27998
和 27997
囗 27996
国 27995
國 27994
土 27993
城 27992
士 27991
大 27990
天 27989
太 27988
夫 27987
女 27986
子 27985
宀 27984
安 27983
宮 27982
宿 27981
小 27980
尚 27979
山 27978
島 27977
川 27976
州 27975
平 27974
年 27973
心 27972
愛 27971
戸 27970
文 27969
新 27968
方 27967
日 27966
明 27965
星 27964
書 27963
月 27962
木 27961
本 27960
李 27959
村 27958
東 27957
松 27956
林 27955
正 27954
武 27953
氏 27952
水 27951
氵 27950
江 27949
河 27948
海 27947
版 27946
犬 27945
王 27944
生 27943
田 27942
白 27941
皇 27940
省 27939
真 27938
石 27937
社 27936
神 27935
竹 27934
美 27933
義 27932
花 27931
藤 27930
西 27929
谷 27928
車 27927
辶 27926
道 27925
郎 27924
郡 27923
部 27922
野 27921
金 27920
長 27919
門 27918
陽 27917
青 27916
食 27915
馬 27914
高 27913
龍 27912
龸 27911
사 27910
씨 27909
의 27908
이 27907
한 27906
ﬁ 27905
ﬂ 27904
！ 27903
（ 27902
） 27901
， 27900
－ 27899
／ 27898
： 27897
the 27896
of 27895
and 27894
to 27893
in 27892
was 27891
The 27890
is 27889
for 27888
as 27887
on 27886
with 27885
that 27884
##s 27883
his 27882
by 27881
he 27880
at 27879
from 27878
it 27877
her 27876
He 27875
had 27874
an 27873
were 27872
you 27871
be 27870
In 27869
she 27868
are 27867
but 27866
which 27865
It 27864
not 27863
or 27862
have 27861
my 27860
him 27859
one 27858
this 27857
me 27856
has 27855
also 27854
up 27853
their 27852
first 27851
out 27850
who 27849
been 27848
they 27847
She 27846
into 27845
all 27844
would 27843
its 27842
##ing 27841
time 27840
two 27839
##a 27838
##e 27837
said 27836
about 27835
when 27834
over 27833
more 27832
other 27831
can 27830
after 27829
back 27828
them 27827
then 27826
##ed 27825
there 27824
like 27823
so 27822
only 27821
##n 27820
could 27819
##d 27818
##i 27817
##y 27816
what 27815
no 27814
##o 27813
where 27812
This 27811
made 27810
than 27809
if 27808
You 27807
##ly 27806
through 27805
we 27804
before 27803
##r 27802
just 27801
some 27800
##er 27799
years 27798
do 27797
New 27796
##t 27795
down 27794
between 27793
new 27792
now 27791
will 27790
three 27789
most 27788
On 27787
around 27786
year 27785
used 27784
such 27783
being 27782
well 27781
during 27780
They 27779
know 27778
against 27777
under 27776
later 27775
did 27774
part 27773
known 27772
off 27771
while 27770
His 27769
re 27768
... 27767
##l 27766
people 27765
until 27764
way 27763
American 27762
didn 27761
University 27760
your 27759
both 27758
many 27757
get 27756
United 27755
became 27754
head 27753
There 27752
second 27751
As 27750
work 27749
any 27748
But 27747
still 27746
again 27745
born 27744
even 27743
eyes 27742
After 27741
including 27740
de 27739
took 27738
And 27737
long 27736
team 27735
season 27734
family 27733
see 27732
right 27731
same 27730
called 27729
name 27728
because 27727
film 27726
don 27725
10 27724
found 27723
much 27722
school 27721
##es 27720
going 27719
won 27718
place 27717
away 27716
We 27715
day 27714
left 27713
John 27712
000 27711
hand 27710
since 27709
World 27708
these 27707
how 27706
make 27705
number 27704
each 27703
life 27702
area 27701
man 27700
four 27699
go 27698
No 27697
here 27696
very 27695
National 27694
##m 27693
played 27692
released 27691
never 27690
began 27689
States 27688
album 27687
home 27686
last 27685
too 27684
held 27683
several 27682
May 27681
own 27680
##on 27679
take 27678
end 27677
School 27676
##h 27675
ll 27674
series 27673
What 27672
want 27671
use 27670
another 27669
city 27668
When 27667
2010 27666
side 27665
At 27664
may 27663
That 27662
came 27661
face 27660
June 27659
think 27658
game 27657
those 27656
high 27655
March 27654
early 27653
September 27652
##al 27651
2011 27650
looked 27649
July 27648
state 27647
small 27646
thought 27645
went 27644
January 27643
October 27642
##u 27641
based 27640
August 27639
##us 27638
world 27637
good 27636
April 27635
York 27634
us 27633
12 27632
2012 27631
2008 27630
For 27629
2009 27628
group 27627
along 27626
few 27625
South 27624
little 27623
##k 27622
following 27621
November 27620
something 27619
2013 27618
December 27617
set 27616
2007 27615
old 27614
2006 27613
2014 27612
located 27611
##an 27610
music 27609
County 27608
City 27607
former 27606
##in 27605
room 27604
ve 27603
next 27602
All 27601
##man 27600
got 27599
father 27598
house 27597
##g 27596
body 27595
15 27594
20 27593
18 27592
started 27591
If 27590
2015 27589
town 27588
our 27587
line 27586
War 27585
large 27584
population 27583
named 27582
British 27581
company 27580
member 27579
five 27578
My 27577
single 27576
##en 27575
age 27574
State 27573
moved 27572
February 27571
11 27570
Her 27569
should 27568
century 27567
government 27566
built 27565
come 27564
best 27563
show 27562
However 27561
within 27560
look 27559
men 27558
door 27557
without 27556
need 27555
wasn 27554
2016 27553
water 27552
One 27551
system 27550
knew 27549
every 27548
died 27547
League 27546
turned 27545
asked 27544
North 27543
St 27542
wanted 27541
building 27540
received 27539
song 27538
served 27537
though 27536
felt 27535
##ia 27534
station 27533
band 27532
##ers 27531
local 27530
public 27529
himself 27528
different 27527
death 27526
say 27525
##1 27524
30 27523
##2 27522
2005 27521
16 27520
night 27519
behind 27518
children 27517
English 27516
members 27515
near 27514
saw 27513
together 27512
son 27511
14 27510
voice 27509
village 27508
13 27507
hands 27506
help 27505
##3 27504
due 27503
French 27502
London 27501
top 27500
told 27499
open 27498
published 27497
third 27496
2017 27495
play 27494
across 27493
During 27492
put 27491
final 27490
often 27489
include 27488
25 27487
##le 27486
main 27485
having 27484
2004 27483
once 27482
ever 27481
let 27480
book 27479
led 27478
gave 27477
late 27476
front 27475
find 27474
club 27473
##4 27472
German 27471
included 27470
species 27469
College 27468
form 27467
opened 27466
mother 27465
women 27464
enough 27463
West 27462
must 27461
2000 27460
power 27459
really 27458
17 27457
making 27456
half 27455
##6 27454
order 27453
might 27452
##is 27451
given 27450
million 27449
times 27448
days 27447
point 27446
full 27445
service 27444
With 27443
km 27442
major 27441
##7 27440
original 27439
become 27438
seen 27437
II 27436
north 27435
six 27434
##te 27433
love 27432
##0 27431
national 27430
International 27429
##5 27428
24 27427
So 27426
District 27425
lost 27424
run 27423
couldn 27422
career 27421
always 27420
##9 27419
2003 27418
##th 27417
country 27416
##z 27415
House 27414
air 27413
tell 27412
south 27411
worked 27410
woman 27409
player 27408
##A 27407
almost 27406
war 27405
River 27404
##ic 27403
married 27402
continued 27401
Then 27400
James 27399
close 27398
black 27397
short 27396
##8 27395
##na 27394
using 27393
history 27392
returned 27391
light 27390
car 27389
##ra 27388
sure 27387
William 27386
things 27385
General 27384
##ry 27383
2002 27382
better 27381
support 27380
100 27379
among 27378
From 27377
feet 27376
King 27375
anything 27374
21 27373
19 27372
established 27371
district 27370
2001 27369
feel 27368
great 27367
##ton 27366
level 27365
Cup 27364
These 27363
written 27362
games 27361
others 27360
already 27359
title 27358
story 27357
##p 27356
law 27355
thing 27354
US 27353
record 27352
role 27351
however 27350
By 27349
students 27348
England 27347
white 27346
control 27345
least 27344
inside 27343
land 27342
##C 27341
22 27340
give 27339
community 27338
hard 27337
##ie 27336
non 27335
##c 27334
produced 27333
George 27332
round 27331
period 27330
Park 27329
business 27328
various 27327
##ne 27326
does 27325
present 27324
wife 27323
far 27322
taken 27321
per 27320
reached 27319
David 27318
able 27317
version 27316
working 27315
young 27314
live 27313
created 27312
joined 27311
East 27310
living 27309
appeared 27308
case 27307
High 27306
done 27305
23 27304
important 27303
President 27302
Award 27301
France 27300
position 27299
office 27298
looking 27297
total 27296
general 27295
class 27294
To 27293
production 27292
##S 27291
football 27290
party 27289
brother 27288
keep 27287
mind 27286
free 27285
Street 27284
hair 27283
announced 27282
development 27281
either 27280
nothing 27279
moment 27278
Church 27277
followed 27276
wrote 27275
why 27274
India 27273
San 27272
election 27271
1999 27270
lead 27269
How 27268
##ch 27267
##rs 27266
words 27265
European 27264
course 27263
considered 27262
America 27261
arms 27260
Army 27259
political 27258
##la 27257
28 27256
26 27255
west 27254
east 27253
ground 27252
further 27251
church 27250
less 27249
site 27248
First 27247
Not 27246
Australia 27245
toward 27244
California 27243
##ness 27242
described 27241
works 27240
An 27239
Council 27238
heart 27237
past 27236
military 27235
27 27234
##or 27233
heard 27232
field 27231
human 27230
soon 27229
founded 27228
1998 27227
playing 27226
trying 27225
##x 27224
##ist 27223
##ta 27222
television 27221
mouth 27220
although 27219
taking 27218
win 27217
fire 27216
Division 27215
##ity 27214
Party 27213
Royal 27212
program 27211
Some 27210
Don 27209
Association 27208
According 27207
tried 27206
TV 27205
Paul 27204
outside 27203
daughter 27202
Best 27201
While 27200
someone 27199
match 27198
recorded 27197
Canada 27196
closed 27195
region 27194
Air 27193
above 27192
months 27191
elected 27190
##da 27189
##ian 27188
road 27187
##ar 27186
brought 27185
move 27184
1997 27183
leave 27182
##um 27181
Thomas 27180
1996 27179
am 27178
low 27177
Robert 27176
formed 27175
person 27174
services 27173
points 27172
Mr 27171
miles 27170
##b 27169
stop 27168
rest 27167
doing 27166
needed 27165
international 27164
release 27163
floor 27162
start 27161
sound 27160
call 27159
killed 27158
real 27157
dark 27156
research 27155
finished 27154
language 27153
Michael 27152
professional 27151
change 27150
sent 27149
50 27148
upon 27147
29 27146
track 27145
hit 27144
event 27143
2018 27142
term 27141
example 27140
Germany 27139
similar 27138
return 27137
##ism 27136
fact 27135
pulled 27134
stood 27133
says 27132
ran 27131
information 27130
yet 27129
result 27128
developed 27127
girl 27126
##re 27125
God 27124
1995 27123
areas 27122
signed 27121
decided 27120
##ment 27119
Company 27118
seemed 27117
##el 27116
co 27115
turn 27114
race 27113
common 27112
video 27111
Charles 27110
Indian 27109
##ation 27108
blood 27107
art 27106
red 27105
##able 27104
added 27103
rather 27102
1994 27101
met 27100
director 27099
addition 27098
design 27097
average 27096
minutes 27095
##ies 27094
##ted 27093
available 27092
bed 27091
coming 27090
friend 27089
idea 27088
kind 27087
Union 27086
Road 27085
remained 27084
##ting 27083
everything 27082
##ma 27081
running 27080
care 27079
finally 27078
Chinese 27077
appointed 27076
1992 27075
Australian 27074
##ley 27073
popular 27072
mean 27071
teams 27070
probably 27069
##land 27068
usually 27067
project 27066
social 27065
Championship 27064
possible 27063
word 27062
Russian 27061
instead 27060
mi 27059
herself 27058
##T 27057
Peter 27056
Hall 27055
Center 27054
seat 27053
style 27052
money 27051
1993 27050
else 27049
Department 27048
table 27047
Music 27046
current 27045
31 27044
features 27043
special 27042
events 27041
character 27040
Two 27039
square 27038
sold 27037
debut 27036
##v 27035
process 27034
Although 27033
Since 27032
##ka 27031
40 27030
Central 27029
currently 27028
education 27027
placed 27026
lot 27025
China 27024
quickly 27023
forward 27022
seven 27021
##ling 27020
Europe 27019
arm 27018
performed 27017
Japanese 27016
1991 27015
Henry 27014
Now 27013
Dr 27012
##ion 27011
week 27010
Group 27009
myself 27008
big 27007
UK 27006
Washington 27005
ten 27004
deep 27003
1990 27002
Club 27001
Japan 27000
space 26999
La 26998
directed 26997
smile 26996
episode 26995
hours 26994
whole 26993
##de 26992
##less 26991
Why 26990
wouldn 26989
designed 26988
strong 26987
training 26986
changed 26985
Society 26984
stage 26983
involved 26982
hadn 26981
towards 26980
leading 26979
police 26978
eight 26977
kept 26976
Institute 26975
study 26974
largest 26973
child 26972
eventually 26971
private 26970
modern 26969
Court 26968
throughout 26967
getting 26966
originally 26965
attack 26964
##E 26963
talk 26962
Great 26961
longer 26960
songs 26959
alone 26958
##ine 26957
wide 26956
dead 26955
walked 26954
shot 26953
##ri 26952
Oh 26951
force 26950
##st 26949
Art 26948
today 26947
friends 26946
Island 26945
Richard 26944
1989 26943
center 26942
construction 26941
believe 26940
size 26939
White 26938
ship 26937
completed 26936
##B 26935
gone 26934
Just 26933
rock 26932
sat 26931
##R 26930
radio 26929
below 26928
entire 26927
families 26926
league 26925
includes 26924
type 26923
lived 26922
official 26921
range 26920
hold 26919
featured 26918
Most 26917
##ter 26916
president 26915
passed 26914
means 26913
##f 26912
forces 26911
lips 26910
Mary 26909
Do 26908
guitar 26907
##ce 26906
food 26905
wall 26904
Of 26903
spent 26902
Its 26901
performance 26900
hear 26899
##P 26898
Western 26897
reported 26896
sister 26895
##et 26894
morning 26893
##M 26892
especially 26891
##ive 26890
Minister 26889
itself 26888
post 26887
bit 26886
groups 26885
1988 26884
##tion 26883
Black 26882
##ng 26881
Well 26880
raised 26879
sometimes 26878
Canadian 26877
Paris 26876
Spanish 26875
replaced 26874
schools 26873
Academy 26872
leaving 26871
central 26870
female 26869
Christian 26868
Jack 26867
whose 26866
college 26865
onto 26864
provided 26863
##D 26862
##ville 26861
players 26860
actually 26859
stopped 26858
##son 26857
Museum 26856
doesn 26855
##ts 26854
books 26853
fight 26852
allowed 26851
##ur 26850
beginning 26849
Records 26848
awarded 26847
parents 26846
coach 26845
##os 26844
Red 26843
saying 26842
##ck 26841
Smith 26840
Yes 26839
Lake 26838
##L 26837
aircraft 26836
1987 26835
##ble 26834
previous 26833
ft 26832
action 26831
Italian 26830
African 26829
happened 26828
vocals 26827
Act 26826
future 26825
court 26824
##ge 26823
1986 26822
degree 26821
phone 26820
##ro 26819
Is 26818
countries 26817
winning 26816
breath 26815
Love 26814
river 26813
matter 26812
Lord 26811
Other 26810
list 26809
self 26808
parts 26807
##ate 26806
provide 26805
cut 26804
shows 26803
plan 26802
1st 26801
interest 26800
##ized 26799
Africa 26798
stated 26797
Sir 26796
fell 26795
owned 26794
earlier 26793
ended 26792
competition 26791
attention 26790
1985 26789
lower 26788
nearly 26787
bad 26786
older 26785
stay 26784
Saint 26783
##se 26782
certain 26781
1984 26780
fingers 26779
blue 26778
try 26777
fourth 26776
Grand 26775
##as 26774
king 26773
##nt 26772
makes 26771
chest 26770
movement 26769
states 26768
moving 26767
data 26766
introduced 26765
model 26764
date 26763
section 26762
Los 26761
deal 26760
##I 26759
skin 26758
entered 26757
middle 26756
success 26755
Texas 26754
##w 26753
summer 26752
island 26751
##N 26750
Republic 26749
length 26748
husband 26747
1980 26746
##ey 26745
reason 26744
anyone 26743
forced 26742
via 26741
base 26740
500 26739
job 26738
covered 26737
Festival 26736
Roman 26735
successful 26734
rights 26733
cover 26732
Man 26731
writing 26730
Ireland 26729
##F 26728
related 26727
goal 26726
takes 26725
buildings 26724
true 26723
weeks 26722
1983 26721
Because 26720
opening 26719
novel 26718
ISBN 26717
meet 26716
gold 26715
##ous 26714
mid 26713
km² 26712
standing 26711
Football 26710
Chicago 26709
shook 26708
whom 26707
##ki 26706
1982 26705
Day 26704
feeling 26703
scored 26702
boy 26701
higher 26700
Force 26699
leader 26698
heavy 26697
fall 26696
question 26695
sense 26694
army 26693
Second 26692
energy 26691
meeting 26690
themselves 26689
kill 26688
##am 26687
board 26686
census 26685
##ya 26684
##ns 26683
mine 26682
meant 26681
market 26680
required 26679
battle 26678
campaign 26677
attended 26676
approximately 26675
Kingdom 26674
runs 26673
active 26672
##ha 26671
contract 26670
clear 26669
previously 26668
health 26667
1979 26666
Arts 26665
complete 26664
Catholic 26663
couple 26662
units 26661
##ll 26660
##ty 26659
Committee 26658
shoulder 26657
sea 26656
systems 26655
listed 26654
##O 26653
caught 26652
tournament 26651
##G 26650
northern 26649
author 26648
Film 26647
Your 26646
##men 26645
holding 26644
offered 26643
personal 26642
1981 26641
southern 26640
artist 26639
traditional 26638
studio 26637
200 26636
capital 26635
##ful 26634
regular 26633
ask 26632
giving 26631
organization 26630
month 26629
news 26628
Are 26627
read 26626
managed 26625
helped 26624
studied 26623
student 26622
defeated 26621
natural 26620
industry 26619
Year 26618
noted 26617
decision 26616
Government 26615
quite 26614
##id 26613
smiled 26612
1972 26611
Maybe 26610
tracks 26609
##ke 26608
Mark 26607
al 26606
media 26605
engine 26604
hour 26603
Their 26602
relationship 26601
plays 26600
property 26599
structure 26598
1976 26597
ago 26596
Hill 26595
Martin 26594
1978 26593
ready 26592
Many 26591
Like 26590
Bay 26589
immediately 26588
generally 26587
Italy 26586
Greek 26585
practice 26584
caused 26583
division 26582
significant 26581
Joseph 26580
speed 26579
Let 26578
thinking 26577
completely 26576
1974 26575
primary 26574
mostly 26573
##field 26572
##K 26571
1975 26570
##to 26569
Even 26568
writer 26567
##led 26566
dropped 26565
magazine 26564
collection 26563
understand 26562
route 26561
highest 26560
particular 26559
films 26558
lines 26557
network 26556
Science 26555
loss 26554
carried 26553
direction 26552
green 26551
1977 26550
location 26549
producer 26548
according 26547
Women 26546
Queen 26545
neck 26544
thus 26543
independent 26542
view 26541
1970 26540
Angeles 26539
Soviet 26538
distance 26537
problem 26536
Board 26535
tour 26534
western 26533
income 26532
appearance 26531
access 26530
Mexico 26529
nodded 26528
street 26527
surface 26526
arrived 26525
believed 26524
Old 26523
1968 26522
1973 26521
becoming 26520
whether 26519
1945 26518
figure 26517
singer 26516
stand 26515
Following 26514
issue 26513
window 26512
wrong 26511
pain 26510
everyone 26509
lives 26508
issues 26507
park 26506
slowly 26505
la 26504
act 26503
##va 26502
bring 26501
Lee 26500
operations 26499
key 26498
comes 26497
fine 26496
cold 26495
famous 26494
Navy 26493
1971 26492
Me 26491
additional 26490
individual 26489
##ner 26488
Zealand 26487
goals 26486
county 26485
contains 26484
Service 26483
minute 26482
2nd 26481
reach 26480
talking 26479
particularly 26478
##ham 26477
movie 26476
Director 26475
glass 26474
paper 26473
studies 26472
##co 26471
railway 26470
standard 26469
Education 26468
45 26467
represented 26466
Chief 26465
Louis 26464
launched 26463
Star 26462
terms 26461
60 26460
1969 26459
experience 26458
watched 26457
Another 26456
Press 26455
Tom 26454
staff 26453
starting 26452
subject 26451
break 26450
Virginia 26449
nine 26448
eye 26447
##age 26446
evidence 26445
foot 26444
##est 26443
companies 26442
Prince 26441
##V 26440
gun 26439
create 26438
Big 26437
People 26436
guy 26435
Green 26434
simply 26433
numerous 26432
##line 26431
increased 26430
twenty 26429
##ga 26428
##do 26427
1967 26426
award 26425
officer 26424
stone 26423
Before 26422
material 26421
Northern 26420
grew 26419
male 26418
plant 26417
Life 26416
legs 26415
step 26414
Al 26413
unit 26412
35 26411
except 26410
answer 26409
##U 26408
report 26407
response 26406
Edward 26405
commercial 26404
edition 26403
trade 26402
science 26401
##ca 26400
Irish 26399
Law 26398
shown 26397
rate 26396
failed 26395
##ni 26394
remains 26393
changes 26392
mm 26391
limited 26390
larger 26389
Later 26388
cause 26387
waiting 26386
Time 26385
##wood 26384
cost 26383
Bill 26382
manager 26381
activities 26380
likely 26379
allow 26378
operated 26377
retired 26376
##ping 26375
65 26374
directly 26373
Who 26372
associated 26371
effect 26370
hell 26369
Florida 26368
straight 26367
hot 26366
Valley 26365
management 26364
girls 26363
expected 26362
eastern 26361
Mike 26360
chance 26359
cast 26358
centre 26357
chair 26356
hurt 26355
problems 26354
##li 26353
walk 26352
programs 26351
Team 26350
characters 26349
Battle 26348
edge 26347
pay 26346
maybe 26345
corner 26344
majority 26343
medical 26342
Joe 26341
Summer 26340
##io 26339
attempt 26338
Pacific 26337
command 26336
Radio 26335
##by 26334
names 26333
municipality 26332
1964 26331
train 26330
economic 26329
Brown 26328
feature 26327
sex 26326
source 26325
agreed 26324
remember 26323
Three 26322
1966 26321
1965 26320
Pennsylvania 26319
victory 26318
senior 26317
annual 26316
III 26315
Southern 26314
results 26313
Sam 26312
serving 26311
religious 26310
Jones 26309
appears 26308
##der 26307
despite 26306
claimed 26305
Both 26304
musical 26303
matches 26302
fast 26301
security 26300
selected 26299
Young 26298
double 26297
complex 26296
hospital 26295
chief 26294
Times 26293
##ve 26292
Championships 26291
filled 26290
Public 26289
Despite 26288
beautiful 26287
Research 26286
plans 26285
Province 26284
##ally 26283
Wales 26282
##ko 26281
artists 26280
metal 26279
nearby 26278
Spain 26277
##il 26276
32 26275
houses 26274
supported 26273
piece 26272
##no 26271
stared 26270
recording 26269
nature 26268
legal 26267
Russia 26266
##ization 26265
remaining 26264
looks 26263
##sh 26262
bridge 26261
closer 26260
cases 26259
scene 26258
marriage 26257
Little 26256
##é 26255
uses 26254
Earth 26253
specific 26252
Frank 26251
theory 26250
Good 26249
discovered 26248
referred 26247
bass 26246
culture 26245
university 26244
presented 26243
Congress 26242
##go 26241
metres 26240
continue 26239
1960 26238
isn 26237
Awards 26236
meaning 26235
cell 26234
composed 26233
separate 26232
Series 26231
forms 26230
Blue 26229
cross 26228
##tor 26227
increase 26226
test 26225
computer 26224
slightly 26223
Where 26222
Jewish 26221
Town 26220
tree 26219
status 26218
1944 26217
variety 26216
responsible 26215
pretty 26214
initially 26213
##way 26212
realized 26211
pass 26210
provides 26209
Captain 26208
Alexander 26207
recent 26206
score 26205
broke 26204
Scott 26203
drive 26202
financial 26201
showed 26200
Line 26199
stories 26198
ordered 26197
soldiers 26196
genus 26195
operation 26194
gaze 26193
sitting 26192
society 26191
Only 26190
hope 26189
actor 26188
follow 26187
Empire 26186
Yeah 26185
technology 26184
happy 26183
focus 26182
policy 26181
spread 26180
situation 26179
##ford 26178
##ba 26177
Mrs 26176
watch 26175
Can 26174
1963 26173
Commission 26172
touch 26171
earned 26170
troops 26169
Under 26168
1962 26167
individuals 26166
cannot 26165
19th 26164
##lin 26163
mile 26162
expression 26161
exactly 26160
suddenly 26159
weight 26158
dance 26157
stepped 26156
places 26155
appear 26154
difficult 26153
Railway 26152
anti 26151
numbers 26150
kilometres 26149
star 26148
##ier 26147
department 26146
ice 26145
Britain 26144
removed 26143
Once 26142
##lo 26141
Boston 26140
value 26139
##ant 26138
mission 26137
trees 26136
Order 26135
sports 26134
join 26133
serve 26132
Major 26131
poor 26130
Poland 26129
mainly 26128
Theatre 26127
pushed 26126
Station 26125
##it 26124
Lady 26123
federal 26122
silver 26121
##ler 26120
foreign 26119
##ard 26118
Eastern 26117
##den 26116
box 26115
hall 26114
subsequently 26113
lies 26112
acquired 26111
1942 26110
ancient 26109
CD 26108
History 26107
Jean 26106
beyond 26105
##ger 26104
El 26103
##les 26102
growing 26101
championship 26100
native 26099
Parliament 26098
Williams 26097
watching 26096
direct 26095
overall 26094
offer 26093
Also 26092
80 26091
Secretary 26090
spoke 26089
Latin 26088
ability 26087
##ated 26086
safe 26085
presence 26084
##ial 26083
headed 26082
regional 26081
planned 26080
1961 26079
Johnson 26078
throat 26077
consists 26076
##W 26075
extended 26074
Or 26073
bar 26072
walls 26071
Chris 26070
stations 26069
politician 26068
Olympics 26067
influence 26066
share 26065
fighting 26064
speak 26063
hundred 26062
Carolina 26061
die 26060
stars 26059
##tic 26058
color 26057
Chapter 26056
##ish 26055
fear 26054
sleep 26053
goes 26052
Francisco 26051
oil 26050
Bank 26049
sign 26048
physical 26047
##berg 26046
Dutch 26045
seasons 26044
##rd 26043
Games 26042
Governor 26041
sorry 26040
lack 26039
Centre 26038
memory 26037
baby 26036
smaller 26035
charge 26034
Did 26033
multiple 26032
ships 26031
shirt 26030
Assembly 26029
amount 26028
leaves 26027
3rd 26026
Foundation 26025
conditions 26024
1943 26023
Rock 26022
Democratic 26021
Daniel 26020
##at 26019
winner 26018
products 26017
##ina 26016
store 26015
latter 26014
Professor 26013
civil 26012
prior 26011
host 26010
1956 26009
soft 26008
vote 26007
needs 26006
Each 26005
rules 26004
1958 26003
pressure 26002
letter 26001
normal 26000
proposed 25999
levels 25998
records 25997
1959 25996
paid 25995
intended 25994
Victoria 25993
purpose 25992
okay 25991
historical 25990
issued 25989
1980s 25988
broadcast 25987
rule 25986
simple 25985
picked 25984
firm 25983
Sea 25982
1941 25981
Elizabeth 25980
1940 25979
serious 25978
featuring 25977
highly 25976
graduated 25975
mentioned 25974
choice 25973
1948 25972
replied 25971
percent 25970
Scotland 25969
##hi 25968
females 25967
constructed 25966
1957 25965
settled 25964
Steve 25963
recognized 25962
cities 25961
crew 25960
glanced 25959
kiss 25958
competed 25957
flight 25956
knowledge 25955
editor 25954
More 25953
Conference 25952
##H 25951
fifth 25950
elements 25949
##ee 25948
##tes 25947
function 25946
newspaper 25945
recently 25944
Miss 25943
cultural 25942
brown 25941
twice 25940
Office 25939
1939 25938
truth 25937
Creek 25936
1946 25935
households 25934
USA 25933
1950 25932
quality 25931
##tt 25930
border 25929
seconds 25928
destroyed 25927
pre 25926
wait 25925
ahead 25924
build 25923
image 25922
90 25921
cars 25920
##mi 25919
33 25918
promoted 25917
professor 25916
et 25915
bank 25914
medal 25913
text 25912
broken 25911
Middle 25910
revealed 25909
sides 25908
wing 25907
seems 25906
channel 25905
1970s 25904
Ben 25903
loved 25902
effort 25901
officers 25900
Will 25899
##ff 25898
70 25897
Israel 25896
Jim 25895
upper 25894
fully 25893
label 25892
Jr 25891
assistant 25890
powerful 25889
pair 25888
positive 25887
##ary 25886
gives 25885
1955 25884
20th 25883
races 25882
remain 25881
kitchen 25880
primarily 25879
##ti 25878
Sydney 25877
easy 25876
Tour 25875
whispered 25874
buried 25873
300 25872
News 25871
Polish 25870
1952 25869
Duke 25868
Columbia 25867
produce 25866
accepted 25865
00 25864
approach 25863
minor 25862
1947 25861
Special 25860
44 25859
Asian 25858
basis 25857
visit 25856
Fort 25855
Civil 25854
finish 25853
formerly 25852
beside 25851
leaned 25850
##ite 25849
median 25848
rose 25847
coast 25846
effects 25845
supposed 25844
Cross 25843
##hip 25842
Corps 25841
residents 25840
Jackson 25839
##ir 25838
Bob 25837
basketball 25836
36 25835
Asia 25834
seem 25833
Bishop 25832
Book 25831
##ber 25830
ring 25829
##ze 25828
owner 25827
BBC 25826
##ja 25825
transferred 25824
acting 25823
De 25822
appearances 25821
walking 25820
Le 25819
press 25818
grabbed 25817
1954 25816
officially 25815
1953 25814
##pe 25813
risk 25812
taught 25811
review 25810
##X 25809
lay 25808
##well 25807
council 25806
Avenue 25805
seeing 25804
losing 25803
Ohio 25802
Super 25801
province 25800
ones 25799
travel 25798
##sa 25797
projects 25796
equipment 25795
spot 25794
Berlin 25793
administrative 25792
heat 25791
potential 25790
shut 25789
capacity 25788
elections 25787
growth 25786
fought 25785
Republican 25784
mixed 25783
Andrew 25782
teacher 25781
turning 25780
strength 25779
shoulders 25778
beat 25777
wind 25776
1949 25775
Health 25774
follows 25773
camp 25772
suggested 25771
perhaps 25770
Alex 25769
mountain 25768
contact 25767
divided 25766
candidate 25765
fellow 25764
34 25763
Show 25762
necessary 25761
workers 25760
ball 25759
horse 25758
ways 25757
questions 25756
protect 25755
gas 25754
activity 25753
younger 25752
bottom 25751
founder 25750
Scottish 25749
screen 25748
treatment 25747
easily 25746
com 25745
##house 25744
dedicated 25743
Master 25742
warm 25741
Night 25740
Georgia 25739
Long 25738
von 25737
##me 25736
perfect 25735
website 25734
1960s 25733
piano 25732
efforts 25731
##ide 25730
Tony 25729
sort 25728
offers 25727
Development 25726
Simon 25725
executive 25724
##nd 25723
save 25722
Over 25721
Senate 25720
1951 25719
1990s 25718
draw 25717
master 25716
Police 25715
##ius 25714
renamed 25713
boys 25712
initial 25711
prominent 25710
damage 25709
Co 25708
##ov 25707
##za 25706
online 25705
begin 25704
occurred 25703
captured 25702
youth 25701
Top 25700
account 25699
tells 25698
Justice 25697
conducted 25696
forest 25695
##town 25694
bought 25693
teeth 25692
Jersey 25691
##di 25690
purchased 25689
agreement 25688
Michigan 25687
##ure 25686
campus 25685
prison 25684
becomes 25683
product 25682
secret 25681
guess 25680
Route 25679
huge 25678
types 25677
drums 25676
64 25675
split 25674
defeat 25673
estate 25672
housing 25671
##ot 25670
brothers 25669
Coast 25668
declared 25667
happen 25666
titled 25665
therefore 25664
sun 25663
commonly 25662
alongside 25661
Stadium 25660
library 25659
Home 25658
article 25657
steps 25656
telling 25655
slow 25654
assigned 25653
refused 25652
laughed 25651
wants 25650
Nick 25649
wearing 25648
Rome 25647
Open 25646
##ah 25645
Hospital 25644
pointed 25643
Taylor 25642
lifted 25641
escape 25640
participated 25639
##j 25638
drama 25637
parish 25636
Santa 25635
##per 25634
organized 25633
mass 25632
pick 25631
Airport 25630
gets 25629
Library 25628
unable 25627
pull 25626
Live 25625
##ging 25624
surrounding 25623
##ries 25622
focused 25621
Adam 25620
facilities 25619
##ning 25618
##ny 25617
38 25616
##ring 25615
notable 25614
era 25613
connected 25612
gained 25611
operating 25610
laid 25609
Regiment 25608
branch 25607
defined 25606
Christmas 25605
machine 25604
Four 25603
academic 25602
Iran 25601
adopted 25600
concept 25599
Men 25598
compared 25597
search 25596
traffic 25595
Max 25594
Maria 25593
greater 25592
##ding 25591
widely 25590
##burg 25589
serves 25588
1938 25587
37 25586
Go 25585
hotel 25584
shared 25583
typically 25582
scale 25581
1936 25580
leg 25579
suffered 25578
yards 25577
pieces 25576
Ministry 25575
Wilson 25574
episodes 25573
empty 25572
1918 25571
safety 25570
continues 25569
yellow 25568
historic 25567
settlement 25566
400 25565
Come 25564
Corporation 25563
enemy 25562
content 25561
picture 25560
evening 25559
territory 25558
method 25557
trial 25556
solo 25555
driver 25554
Here 25553
##ls 25552
entrance 25551
Prize 25550
spring 25549
whatever 25548
##ent 25547
75 25546
##ji 25545
reading 25544
Arthur 25543
##cy 25542
Our 25541
clothes 25540
Prime 25539
Illinois 25538
Kong 25537
code 25536
##ria 25535
sit 25534
Harry 25533
Federal 25532
chosen 25531
administration 25530
bodies 25529
begins 25528
stomach 25527
Though 25526
seats 25525
Hong 25524
density 25523
Sun 25522
leaders 25521
Field 25520
museum 25519
chart 25518
platform 25517
languages 25516
##ron 25515
birth 25514
holds 25513
Gold 25512
##un 25511
fish 25510
combined 25509
##ps 25508
4th 25507
1937 25506
largely 25505
captain 25504
trust 25503
Game 25502
van 25501
boat 25500
Oxford 25499
basic 25498
beneath 25497
Islands 25496
painting 25495
nice 25494
Toronto 25493
path 25492
males 25491
sources 25490
block 25489
conference 25488
parties 25487
murder 25486
clubs 25485
crowd 25484
calling 25483
About 25482
Business 25481
peace 25480
knows 25479
lake 25478
speaking 25477
stayed 25476
Brazil 25475
allowing 25474
Born 25473
unique 25472
thick 25471
Technology 25470
##que 25469
receive 25468
des 25467
semi 25466
alive 25465
noticed 25464
format 25463
##ped 25462
coffee 25461
digital 25460
##ned 25459
handed 25458
guard 25457
tall 25456
faced 25455
setting 25454
plants 25453
partner 25452
claim 25451
reduced 25450
temple 25449
animals 25448
determined 25447
classes 25446
##out 25445
estimated 25444
##ad 25443
Olympic 25442
providing 25441
Massachusetts 25440
learned 25439
Inc 25438
Philadelphia 25437
Social 25436
carry 25435
42 25434
possibly 25433
hosted 25432
tonight 25431
respectively 25430
Today 25429
shape 25428
Mount 25427
roles 25426
designated 25425
brain 25424
etc 25423
Korea 25422
thoughts 25421
Brian 25420
Highway 25419
doors 25418
background 25417
drew 25416
models 25415
footballer 25414
tone 25413
turns 25412
1935 25411
quiet 25410
tower 25409
wood 25408
bus 25407
write 25406
software 25405
weapons 25404
flat 25403
marked 25402
1920 25401
newly 25400
tight 25399
Eric 25398
finger 25397
Journal 25396
FC 25395
Van 25394
rise 25393
critical 25392
Atlantic 25391
granted 25390
returning 25389
communities 25388
humans 25387
quick 25386
39 25385
48 25384
ranked 25383
sight 25382
pop 25381
Swedish 25380
Stephen 25379
card 25378
analysis 25377
attacked 25376
##wa 25375
Sunday 25374
identified 25373
Jason 25372
champion 25371
situated 25370
1930 25369
expanded 25368
tears 25367
##nce 25366
reaching 25365
Davis 25364
protection 25363
Emperor 25362
positions 25361
nominated 25360
Bridge 25359
tax 25358
dress 25357
allows 25356
avoid 25355
leadership 25354
killing 25353
actress 25352
guest 25351
steel 25350
knowing 25349
electric 25348
cells 25347
disease 25346
grade 25345
unknown 25344
##ium 25343
resulted 25342
Pakistan 25341
confirmed 25340
##ged 25339
tongue 25338
covers 25337
##Y 25336
roof 25335
entirely 25334
applied 25333
votes 25332
drink 25331
interview 25330
exchange 25329
Township 25328
reasons 25327
##ised 25326
page 25325
calls 25324
dog 25323
agent 25322
nose 25321
teaching 25320
##ds 25319
##ists 25318
advanced 25317
wish 25316
Golden 25315
existing 25314
vehicle 25313
del 25312
1919 25311
develop 25310
attacks 25309
pressed 25308
Sports 25307
planning 25306
resulting 25305
facility 25304
Sarah 25303
notes 25302
1933 25301
Class 25300
Historic 25299
winter 25298
##mo 25297
audience 25296
Community 25295
household 25294
Netherlands 25293
creation 25292
##ize 25291
keeping 25290
1914 25289
claims 25288
dry 25287
guys 25286
opposite 25285
##ak 25284
explained 25283
Ontario 25282
secondary 25281
difference 25280
Francis 25279
actions 25278
organizations 25277
yard 25276
animal 25275
Up 25274
Lewis 25273
titles 25272
Several 25271
1934 25270
Ryan 25269
55 25268
Supreme 25267
rolled 25266
1917 25265
distribution 25264
figures 25263
afraid 25262
rural 25261
yourself 25260
##rt 25259
sets 25258
barely 25257
Instead 25256
passing 25255
awards 25254
41 25253
silence 25252
authority 25251
occupied 25250
environment 25249
windows 25248
engineering 25247
surprised 25246
flying 25245
crime 25244
reports 25243
Mountain 25242
powers 25241
driving 25240
succeeded 25239
reviews 25238
1929 25237
Head 25236
missing 25235
Song 25234
Jesus 25233
opportunity 25232
inspired 25231
ends 25230
albums 25229
conversation 25228
impact 25227
injury 25226
surprise 25225
billion 25224
learning 25223
heavily 25222
oldest 25221
union 25220
creating 25219
##ky 25218
festival 25217
literature 25216
letters 25215
sexual 25214
##tte 25213
apartment 25212
Final 25211
comedy 25210
nation 25209
orders 25208
##sen 25207
contemporary 25206
Power 25205
drawn 25204
existence 25203
connection 25202
##ating 25201
Post 25200
Junior 25199
remembered 25198
message 25197
Medal 25196
castle 25195
note 25194
engineer 25193
sounds 25192
Beach 25191
crossed 25190
##dy 25189
ear 25188
scientific 25187
sales 25186
##ai 25185
theme 25184
starts 25183
clearly 25182
##ut 25181
trouble 25180
##gan 25179
bag 25178
##han 25177
BC 25176
sons 25175
1928 25174
silent 25173
versions 25172
daily 25171
Studies 25170
ending 25169
Rose 25168
guns 25167
1932 25166
headquarters 25165
reference 25164
obtained 25163
Squadron 25162
concert 25161
none 25160
du 25159
Among 25158
##don 25157
prevent 25156
Member 25155
answered 25154
staring 25153
Between 25152
##lla 25151
portion 25150
drug 25149
liked 25148
association 25147
performances 25146
Nations 25145
formation 25144
Castle 25143
lose 25142
learn 25141
scoring 25140
relatively 25139
quarter 25138
47 25137
Premier 25136
##ors 25135
Sweden 25134
baseball 25133
attempted 25132
trip 25131
worth 25130
perform 25129
airport 25128
fields 25127
enter 25126
honor 25125
Medical 25124
rear 25123
commander 25122
officials 25121
condition 25120
supply 25119
materials 25118
52 25117
Anna 25116
volume 25115
threw 25114
Persian 25113
43 25112
interested 25111
Gallery 25110
achieved 25109
visited 25108
laws 25107
relief 25106
Area 25105
Matt 25104
singles 25103
Lieutenant 25102
Country 25101
fans 25100
Cambridge 25099
sky 25098
Miller 25097
effective 25096
tradition 25095
Port 25094
##ana 25093
minister 25092
extra 25091
entitled 25090
System 25089
sites 25088
authorities 25087
acres 25086
committee 25085
racing 25084
1931 25083
desk 25082
trains 25081
ass 25080
weren 25079
Family 25078
farm 25077
##ance 25076
industrial 25075
##head 25074
iron 25073
49 25072
abandoned 25071
Out 25070
Holy 25069
chairman 25068
waited 25067
frequently 25066
display 25065
Light 25064
transport 25063
starring 25062
Patrick 25061
Engineering 25060
eat 25059
FM 25058
judge 25057
reaction 25056
centuries 25055
price 25054
##tive 25053
Korean 25052
defense 25051
Get 25050
arrested 25049
1927 25048
send 25047
urban 25046
##ss 25045
pilot 25044
Okay 25043
Media 25042
reality 25041
arts 25040
soul 25039
thirty 25038
##be 25037
catch 25036
generation 25035
##nes 25034
apart 25033
Anne 25032
drop 25031
See 25030
##ving 25029
sixth 25028
trained 25027
Management 25026
magic 25025
cm 25024
height 25023
Fox 25022
Ian 25021
resources 25020
vampire 25019
principal 25018
Was 25017
haven 25016
##au 25015
Walter 25014
Albert 25013
rich 25012
1922 25011
causing 25010
entry 25009
##ell 25008
shortly 25007
46 25006
worry 25005
doctor 25004
composer 25003
rank 25002
Network 25001
bright 25000
showing 24999
regions 24998
1924 24997
wave 24996
carrying 24995
kissed 24994
finding 24993
missed 24992
Earl 24991
lying 24990
target 24989
vehicles 24988
Military 24987
controlled 24986
dinner 24985
##board 24984
briefly 24983
lyrics 24982
motion 24981
duty 24980
strange 24979
attempts 24978
invited 24977
kg 24976
villages 24975
5th 24974
Land 24973
##mer 24972
Christ 24971
prepared 24970
twelve 24969
check 24968
thousand 24967
earth 24966
copies 24965
en 24964
transfer 24963
citizens 24962
Americans 24961
politics 24960
nor 24959
theatre 24958
Project 24957
##bo 24956
clean 24955
rooms 24954
laugh 24953
##ran 24952
application 24951
contained 24950
anyway 24949
containing 24948
Sciences 24947
1925 24946
rare 24945
speech 24944
exist 24943
1950s 24942
falling 24941
passenger 24940
##im 24939
stands 24938
51 24937
##ol 24936
##ow 24935
phase 24934
governor 24933
kids 24932
details 24931
methods 24930
Vice 24929
employed 24928
performing 24927
counter 24926
Jane 24925
heads 24924
Channel 24923
wine 24922
opposition 24921
aged 24920
1912 24919
Every 24918
1926 24917
highway 24916
##ura 24915
1921 24914
aired 24913
978 24912
permanent 24911
Forest 24910
finds 24909
joint 24908
approved 24907
##pur 24906
brief 24905
doubt 24904
acts 24903
brand 24902
wild 24901
closely 24900
Ford 24899
Kevin 24898
chose 24897
shall 24896
port 24895
sweet 24894
fun 24893
asking 24892
Be 24891
##bury 24890
sought 24889
Dave 24888
Mexican 24887
mom 24886
Right 24885
Howard 24884
Moscow 24883
Charlie 24882
Stone 24881
##mann 24880
admitted 24879
##ver 24878
wooden 24877
1923 24876
Officer 24875
relations 24874
Hot 24873
combat 24872
publication 24871
chain 24870
shop 24869
inhabitants 24868
proved 24867
ideas 24866
address 24865
1915 24864
Memorial 24863
explain 24862
increasing 24861
conflict 24860
Anthony 24859
Melbourne 24858
narrow 24857
temperature 24856
slid 24855
1916 24854
worse 24853
selling 24852
documentary 24851
Ali 24850
Ray 24849
opposed 24848
vision 24847
dad 24846
extensive 24845
Infantry 24844
commissioned 24843
Doctor 24842
offices 24841
programming 24840
core 24839
respect 24838
storm 24837
##pa 24836
##ay 24835
##om 24834
promotion 24833
der 24832
struck 24831
anymore 24830
shit 24829
Region 24828
receiving 24827
DVD 24826
alternative 24825
##ue 24824
ride 24823
maximum 24822
1910 24821
##ious 24820
Third 24819
Affairs 24818
cancer 24817
Executive 24816
##op 24815
dream 24814
18th 24813
Due 24812
##ker 24811
##worth 24810
economy 24809
IV 24808
Billboard 24807
identity 24806
subsequent 24805
statement 24804
skills 24803
##back 24802
funding 24801
##ons 24800
Round 24799
Foreign 24798
truck 24797
Please 24796
lights 24795
wondered 24794
##ms 24793
frame 24792
yes 24791
Still 24790
districts 24789
fiction 24788
Colonel 24787
converted 24786
150 24785
grown 24784
accident 24783
critics 24782
fit 24781
Information 24780
architecture 24779
Point 24778
Five 24777
armed 24776
Billy 24775
poet 24774
functions 24773
consisted 24772
suit 24771
Turkish 24770
Band 24769
object 24768
desire 24767
##ities 24766
sounded 24765
flow 24764
Norwegian 24763
articles 24762
Marie 24761
pulling 24760
thin 24759
singing 24758
Hunter 24757
Human 24756
Battalion 24755
Federation 24754
Kim 24753
origin 24752
represent 24751
dangerous 24750
weather 24749
fuel 24748
ex 24747
##sing 24746
Last 24745
bedroom 24744
aid 24743
knees 24742
Alan 24741
angry 24740
assumed 24739
plane 24738
Something 24737
founding 24736
concerned 24735
global 24734
Fire 24733
di 24732
please 24731
Portuguese 24730
touched 24729
Roger 24728
nuclear 24727
Register 24726
Jeff 24725
fixed 24724
royal 24723
lie 24722
finals 24721
NFL 24720
Manchester 24719
towns 24718
handle 24717
shaped 24716
Chairman 24715
Dean 24714
launch 24713
understanding 24712
Children 24711
violence 24710
failure 24709
sector 24708
Brigade 24707
wrapped 24706
fired 24705
sharp 24704
tiny 24703
developing 24702
expansion 24701
Free 24700
institutions 24699
technical 24698
Nothing 24697
otherwise 24696
Main 24695
inch 24694
Saturday 24693
wore 24692
Senior 24691
attached 24690
cheek 24689
representing 24688
Kansas 24687
##chi 24686
##kin 24685
actual 24684
advantage 24683
Dan 24682
Austria 24681
##dale 24680
hoped 24679
multi 24678
squad 24677
Norway 24676
streets 24675
1913 24674
Services 24673
hired 24672
grow 24671
pp 24670
wear 24669
painted 24668
Minnesota 24667
stuff 24666
Building 24665
54 24664
Philippines 24663
1900 24662
##ties 24661
educational 24660
Khan 24659
Magazine 24658
##port 24657
Cape 24656
signal 24655
Gordon 24654
sword 24653
Anderson 24652
cool 24651
engaged 24650
Commander 24649
images 24648
Upon 24647
tied 24646
Security 24645
cup 24644
rail 24643
Vietnam 24642
successfully 24641
##red 24640
Muslim 24639
gain 24638
bringing 24637
Native 24636
hers 24635
occurs 24634
negative 24633
Philip 24632
Kelly 24631
Colorado 24630
category 24629
##lan 24628
600 24627
Have 24626
supporting 24625
wet 24624
56 24623
stairs 24622
Grace 24621
observed 24620
##ung 24619
funds 24618
restaurant 24617
1911 24616
Jews 24615
##ments 24614
##che 24613
Jake 24612
Back 24611
53 24610
asks 24609
journalist 24608
accept 24607
bands 24606
bronze 24605
helping 24604
##ice 24603
decades 24602
mayor 24601
survived 24600
usual 24599
influenced 24598
Douglas 24597
Hey 24596
##izing 24595
surrounded 24594
retirement 24593
Temple 24592
derived 24591
Pope 24590
registered 24589
producing 24588
##ral 24587
structures 24586
Johnny 24585
contributed 24584
finishing 24583
buy 24582
specifically 24581
##king 24580
patients 24579
Jordan 24578
internal 24577
regarding 24576
Samuel 24575
Clark 24574
##q 24573
afternoon 24572
Finally 24571
scenes 24570
notice 24569
refers 24568
quietly 24567
threat 24566
Water 24565
Those 24564
Hamilton 24563
promise 24562
freedom 24561
Turkey 24560
breaking 24559
maintained 24558
device 24557
lap 24556
ultimately 24555
Champion 24554
Tim 24553
Bureau 24552
expressed 24551
investigation 24550
extremely 24549
capable 24548
qualified 24547
recognition 24546
items 24545
##up 24544
Indiana 24543
adult 24542
rain 24541
greatest 24540
architect 24539
Morgan 24538
dressed 24537
equal 24536
Antonio 24535
collected 24534
drove 24533
occur 24532
Grant 24531
graduate 24530
anger 24529
Sri 24528
worried 24527
standards 24526
##ore 24525
injured 24524
somewhere 24523
damn 24522
Singapore 24521
Jimmy 24520
pocket 24519
homes 24518
stock 24517
religion 24516
aware 24515
regarded 24514
Wisconsin 24513
##tra 24512
passes 24511
fresh 24510
##ea 24509
argued 24508
Ltd 24507
EP 24506
Diego 24505
importance 24504
Census 24503
incident 24502
Egypt 24501
Missouri 24500
domestic 24499
leads 24498
ceremony 24497
Early 24496
camera 24495
Father 24494
challenge 24493
Switzerland 24492
lands 24491
familiar 24490
hearing 24489
spend 24488
educated 24487
Tennessee 24486
Thank 24485
##ram 24484
Thus 24483
concern 24482
putting 24481
inches 24480
map 24479
classical 24478
Allen 24477
crazy 24476
valley 24475
Space 24474
softly 24473
##my 24472
pool 24471
worldwide 24470
climate 24469
experienced 24468
neighborhood 24467
scheduled 24466
neither 24465
fleet 24464
1908 24463
Girl 24462
##J 24461
Part 24460
engines 24459
locations 24458
darkness 24457
Revolution 24456
establishment 24455
lawyer 24454
objects 24453
apparently 24452
Queensland 24451
Entertainment 24450
bill 24449
mark 24448
Television 24447
##ong 24446
pale 24445
demand 24444
Hotel 24443
selection 24442
##rn 24441
##ino 24440
Labour 24439
Liberal 24438
burned 24437
Mom 24436
merged 24435
Arizona 24434
request 24433
##lia 24432
##light 24431
hole 24430
employees 24429
##ical 24428
incorporated 24427
95 24426
independence 24425
Walker 24424
covering 24423
joining 24422
##ica 24421
task 24420
papers 24419
backing 24418
sell 24417
biggest 24416
6th 24415
strike 24414
establish 24413
##ō 24412
gently 24411
59 24410
Orchestra 24409
Winter 24408
protein 24407
Juan 24406
locked 24405
dates 24404
Boy 24403
aren 24402
shooting 24401
Luke 24400
solid 24399
charged 24398
Prior 24397
resigned 24396
interior 24395
garden 24394
spoken 24393
improve 24392
wonder 24391
promote 24390
hidden 24389
##med 24388
combination 24387
Hollywood 24386
Swiss 24385
consider 24384
##ks 24383
Lincoln 24382
literary 24381
drawing 24380
Marine 24379
weapon 24378
Victor 24377
Trust 24376
Maryland 24375
properties 24374
##ara 24373
exhibition 24372
understood 24371
hung 24370
Tell 24369
installed 24368
loud 24367
fashion 24366
affected 24365
junior 24364
landing 24363
flowers 24362
##he 24361
Internet 24360
beach 24359
Heart 24358
tries 24357
Mayor 24356
programme 24355
800 24354
wins 24353
noise 24352
##ster 24351
##ory 24350
58 24349
contain 24348
fair 24347
delivered 24346
##ul 24345
wedding 24344
Square 24343
advance 24342
behavior 24341
Program 24340
Oregon 24339
##rk 24338
residence 24337
realize 24336
certainly 24335
hill 24334
Houston 24333
57 24332
indicated 24331
##water 24330
wounded 24329
Village 24328
massive 24327
Moore 24326
thousands 24325
personnel 24324
dating 24323
opera 24322
poetry 24321
##her 24320
causes 24319
feelings 24318
Frederick 24317
applications 24316
push 24315
approached 24314
foundation 24313
pleasure 24312
sale 24311
fly 24310
gotten 24309
northeast 24308
costs 24307
raise 24306
paintings 24305
##ney 24304
views 24303
horses 24302
formal 24301
Arab 24300
hockey 24299
typical 24298
representative 24297
rising 24296
##des 24295
clock 24294
stadium 24293
shifted 24292
Dad 24291
peak 24290
Fame 24289
vice 24288
disappeared 24287
users 24286
Way 24285
Naval 24284
prize 24283
hoping 24282
values 24281
evil 24280
Bell 24279
consisting 24278
##ón 24277
Regional 24276
##ics 24275
improved 24274
circle 24273
carefully 24272
broad 24271
##ini 24270
Fine 24269
maintain 24268
operate 24267
offering 24266
mention 24265
Death 24264
stupid 24263
Through 24262
Princess 24261
attend 24260
interests 24259
ruled 24258
somewhat 24257
wings 24256
roads 24255
grounds 24254
##ual 24253
Greece 24252
Champions 24251
facing 24250
hide 24249
voted 24248
require 24247
Dark 24246
Matthew 24245
credit 24244
sighed 24243
separated 24242
manner 24241
##ile 24240
Boys 24239
1905 24238
committed 24237
impossible 24236
lip 24235
candidates 24234
7th 24233
Bruce 24232
arranged 24231
Islamic 24230
courses 24229
criminal 24228
##ened 24227
smell 24226
##bed 24225
08 24224
consecutive 24223
##ening 24222
proper 24221
purchase 24220
weak 24219
Prix 24218
1906 24217
aside 24216
introduction 24215
Look 24214
##ku 24213
changing 24212
budget 24211
resistance 24210
factory 24209
Forces 24208
agency 24207
##tone 24206
northwest 24205
user 24204
1907 24203
stating 24202
##one 24201
sport 24200
Design 24199
environmental 24198
cards 24197
concluded 24196
Carl 24195
250 24194
accused 24193
##ology 24192
Girls 24191
sick 24190
intelligence 24189
Margaret 24188
responsibility 24187
Guard 24186
##tus 24185
17th 24184
sq 24183
goods 24182
1909 24181
hate 24180
##ek 24179
capture 24178
stores 24177
Gray 24176
comic 24175
Modern 24174
Silver 24173
Andy 24172
electronic 24171
wheel 24170
##ied 24169
Deputy 24168
##bs 24167
Czech 24166
zone 24165
choose 24164
constant 24163
reserve 24162
##lle 24161
Tokyo 24160
spirit 24159
sub 24158
degrees 24157
flew 24156
pattern 24155
compete 24154
Dance 24153
##ik 24152
secretary 24151
Imperial 24150
99 24149
reduce 24148
Hungarian 24147
confused 24146
##rin 24145
Pierre 24144
describes 24143
regularly 24142
Rachel 24141
85 24140
landed 24139
passengers 24138
##ise 24137
##sis 24136
historian 24135
meters 24134
Youth 24133
##ud 24132
participate 24131
##cing 24130
arrival 24129
tired 24128
Mother 24127
##gy 24126
jumped 24125
Kentucky 24124
faces 24123
feed 24122
Israeli 24121
Ocean 24120
##Q 24119
##án 24118
plus 24117
snow 24116
techniques 24115
plate 24114
sections 24113
falls 24112
jazz 24111
##ris 24110
tank 24109
loan 24108
repeated 24107
opinion 24106
##res 24105
unless 24104
rugby 24103
journal 24102
Lawrence 24101
moments 24100
shock 24099
distributed 24098
##ded 24097
adjacent 24096
Argentina 24095
crossing 24094
uncle 24093
##ric 24092
Detroit 24091
communication 24090
mental 24089
tomorrow 24088
session 24087
Emma 24086
Without 24085
##gen 24084
Miami 24083
charges 24082
Administration 24081
hits 24080
coat 24079
protected 24078
Cole 24077
invasion 24076
priest 24075
09 24074
Gary 24073
enjoyed 24072
plot 24071
measure 24070
bound 24069
friendly 24068
throw 24067
musician 24066
##lon 24065
##ins 24064
Age 24063
knife 24062
damaged 24061
birds 24060
driven 24059
lit 24058
ears 24057
breathing 24056
Arabic 24055
Jan 24054
faster 24053
Jonathan 24052
##gate 24051
Independent 24050
starred 24049
Harris 24048
teachers 24047
Alice 24046
sequence 24045
mph 24044
file 24043
translated 24042
decide 24041
determine 24040
Review 24039
documents 24038
sudden 24037
threatened 24036
##ft 24035
bear 24034
distinct 24033
decade 24032
burning 24031
##sky 24030
1930s 24029
replace 24028
begun 24027
extension 24026
##time 24025
1904 24024
equivalent 24023
accompanied 24022
Christopher 24021
Danish 24020
##ye 24019
Besides 24018
##more 24017
persons 24016
fallen 24015
Rural 24014
roughly 24013
saved 24012
willing 24011
ensure 24010
Belgium 24009
05 24008
musicians 24007
##ang 24006
giant 24005
Six 24004
Retrieved 24003
worst 24002
purposes 24001
##bly 24000
mountains 23999
seventh 23998
slipped 23997
brick 23996
07 23995
##py 23994
somehow 23993
Carter 23992
Iraq 23991
cousin 23990
favor 23989
islands 23988
journey 23987
FIFA 23986
contrast 23985
planet 23984
vs 23983
calm 23982
##ings 23981
concrete 23980
branches 23979
gray 23978
profit 23977
Russell 23976
##ae 23975
##ux 23974
##ens 23973
philosophy 23972
businesses 23971
talked 23970
parking 23969
##ming 23968
owners 23967
Place 23966
##tle 23965
agricultural 23964
Kate 23963
06 23962
southeast 23961
draft 23960
Eddie 23959
earliest 23958
forget 23957
Dallas 23956
Commonwealth 23955
edited 23954
66 23953
inner 23952
ed 23951
operates 23950
16th 23949
Harvard 23948
assistance 23947
##si 23946
designs 23945
Take 23944
bathroom 23943
indicate 23942
CEO 23941
Command 23940
Louisiana 23939
1902 23938
Dublin 23937
Books 23936
1901 23935
tropical 23934
1903 23933
##tors 23932
Places 23931
tie 23930
progress 23929
forming 23928
solution 23927
62 23926
letting 23925
##ery 23924
studying 23923
##jo 23922
duties 23921
Baseball 23920
taste 23919
Reserve 23918
##ru 23917
Ann 23916
##gh 23915
visible 23914
##vi 23913
notably 23912
link 23911
NCAA 23910
southwest 23909
Never 23908
storage 23907
mobile 23906
writers 23905
favorite 23904
Pro 23903
pages 23902
truly 23901
count 23900
##tta 23899
string 23898
kid 23897
98 23896
Ross 23895
row 23894
##idae 23893
Kennedy 23892
##tan 23891
Hockey 23890
hip 23889
waist 23888
grandfather 23887
listen 23886
##ho 23885
feels 23884
busy 23883
72 23882
stream 23881
obvious 23880
cycle 23879
shaking 23878
Knight 23877
##ren 23876
Carlos 23875
painter 23874
trail 23873
web 23872
linked 23871
04 23870
Palace 23869
existed 23868
##ira 23867
responded 23866
closing 23865
End 23864
examples 23863
Marshall 23862
weekend 23861
jaw 23860
Denmark 23859
lady 23858
township 23857
medium 23856
chin 23855
Story 23854
option 23853
fifteen 23852
Moon 23851
represents 23850
makeup 23849
investment 23848
jump 23847
childhood 23846
Oklahoma 23845
roll 23844
normally 23843
Ten 23842
Operation 23841
Graham 23840
Seattle 23839
Atlanta 23838
paused 23837
promised 23836
rejected 23835
treated 23834
returns 23833
flag 23832
##ita 23831
Hungary 23830
danger 23829
glad 23828
movements 23827
visual 23826
subjects 23825
credited 23824
soldier 23823
Norman 23822
ill 23821
translation 23820
José 23819
Quebec 23818
medicine 23817
warning 23816
theater 23815
praised 23814
municipal 23813
01 23812
commune 23811
churches 23810
acid 23809
folk 23808
8th 23807
testing 23806
add 23805
survive 23804
Sound 23803
devices 23802
residential 23801
severe 23800
presidential 23799
Mississippi 23798
Austin 23797
Perhaps 23796
Charlotte 23795
hanging 23794
Montreal 23793
grin 23792
##ten 23791
racial 23790
partnership 23789
shoot 23788
shift 23787
##nie 23786
Les 23785
downtown 23784
Brothers 23783
Garden 23782
matters 23781
restored 23780
mirror 23779
forever 23778
winners 23777
rapidly 23776
poverty 23775
##ible 23774
Until 23773
DC 23772
faith 23771
hundreds 23770
Real 23769
Ukraine 23768
Nelson 23767
balance 23766
Adams 23765
contest 23764
relative 23763
ethnic 23762
Edinburgh 23761
composition 23760
##nts 23759
emergency 23758
##van 23757
marine 23756
reputation 23755
Down 23754
pack 23753
12th 23752
Communist 23751
Mountains 23750
pro 23749
stages 23748
measures 23747
##ld 23746
ABC 23745
Li 23744
victims 23743
benefit 23742
Iowa 23741
Broadway 23740
gathered 23739
rating 23738
Defense 23737
classic 23736
##ily 23735
ceiling 23734
##ions 23733
snapped 23732
Everything 23731
constituency 23730
Franklin 23729
Thompson 23728
Stewart 23727
entering 23726
Judge 23725
forth 23724
##sk 23723
wanting 23722
smiling 23721
moves 23720
tunnel 23719
premiered 23718
grass 23717
unusual 23716
Ukrainian 23715
bird 23714
Friday 23713
tail 23712
Portugal 23711
coal 23710
element 23709
Fred 23708
guards 23707
Senator 23706
collaboration 23705
beauty 23704
Wood 23703
chemical 23702
beer 23701
justice 23700
signs 23699
##Z 23698
sees 23697
##zi 23696
Puerto 23695
##zed 23694
96 23693
smooth 23692
Bowl 23691
gift 23690
limit 23689
97 23688
heading 23687
Source 23686
wake 23685
requires 23684
Ed 23683
Constitution 23682
factor 23681
Lane 23680
factors 23679
adding 23678
Note 23677
cleared 23676
pictures 23675
pink 23674
##ola 23673
Kent 23672
Local 23671
Singh 23670
moth 23669
Ty 23668
##ture 23667
courts 23666
Seven 23665
temporary 23664
involving 23663
Vienna 23662
emerged 23661
fishing 23660
agree 23659
defensive 23658
stuck 23657
secure 23656
Tamil 23655
##ick 23654
bottle 23653
03 23652
Player 23651
instruments 23650
Spring 23649
patient 23648
flesh 23647
contributions 23646
cry 23645
Malaysia 23644
120 23643
Global 23642
da 23641
Alabama 23640
Within 23639
##work 23638
debuted 23637
expect 23636
Cleveland 23635
concerns 23634
retained 23633
horror 23632
10th 23631
spending 23630
Peace 23629
Transport 23628
grand 23627
Crown 23626
instance 23625
institution 23624
acted 23623
Hills 23622
mounted 23621
Campbell 23620
shouldn 23619
1898 23618
##ably 23617
chamber 23616
soil 23615
88 23614
Ethan 23613
sand 23612
cheeks 23611
##gi 23610
marry 23609
61 23608
weekly 23607
classification 23606
DNA 23605
Elementary 23604
Roy 23603
definitely 23602
Soon 23601
Rights 23600
gate 23599
suggests 23598
aspects 23597
imagine 23596
golden 23595
beating 23594
Studios 23593
Warren 23592
differences 23591
significantly 23590
glance 23589
occasionally 23588
##od 23587
clothing 23586
Assistant 23585
depth 23584
sending 23583
possibility 23582
mode 23581
prisoners 23580
requirements 23579
daughters 23578
dated 23577
Representatives 23576
prove 23575
guilty 23574
interesting 23573
smoke 23572
cricket 23571
93 23570
##ates 23569
rescue 23568
Connecticut 23567
underground 23566
Opera 23565
13th 23564
reign 23563
##ski 23562
thanks 23561
leather 23560
equipped 23559
routes 23558
fan 23557
##ans 23556
script 23555
Wright 23554
bishop 23553
Welsh 23552
jobs 23551
faculty 23550
eleven 23549
Railroad 23548
appearing 23547
anniversary 23546
Upper 23545
##down 23544
anywhere 23543
Rugby 23542
Metropolitan 23541
Meanwhile 23540
Nicholas 23539
champions 23538
forehead 23537
mining 23536
drinking 23535
76 23534
Jerry 23533
membership 23532
Brazilian 23531
Wild 23530
Rio 23529
scheme 23528
Unlike 23527
strongly 23526
##bility 23525
fill 23524
##rian 23523
easier 23522
MP 23521
Hell 23520
##sha 23519
Stanley 23518
banks 23517
Baron 23516
##ique 23515
Robinson 23514
67 23513
Gabriel 23512
Austrian 23511
Wayne 23510
exposed 23509
##wan 23508
Alfred 23507
1899 23506
manage 23505
mix 23504
visitors 23503
eating 23502
##rate 23501
Sean 23500
commission 23499
Cemetery 23498
policies 23497
Camp 23496
parallel 23495
traveled 23494
guitarist 23493
02 23492
supplies 23491
couples 23490
poem 23489
blocks 23488
Rick 23487
Training 23486
Energy 23485
achieve 23484
appointment 23483
Wing 23482
Jamie 23481
63 23480
novels 23479
##em 23478
1890 23477
songwriter 23476
Base 23475
Jay 23474
##gar 23473
naval 23472
scared 23471
miss 23470
labor 23469
technique 23468
crisis 23467
Additionally 23466
backed 23465
destroy 23464
seriously 23463
tools 23462
tennis 23461
91 23460
god 23459
##ington 23458
continuing 23457
steam 23456
obviously 23455
Bobby 23454
adapted 23453
fifty 23452
enjoy 23451
Jacob 23450
publishing 23449
column 23448
##ular 23447
Baltimore 23446
Donald 23445
Liverpool 23444
92 23443
drugs 23442
movies 23441
##ock 23440
Heritage 23439
##je 23438
##istic 23437
vocal 23436
strategy 23435
gene 23434
advice 23433
##bi 23432
Ottoman 23431
riding 23430
##side 23429
Agency 23428
Indonesia 23427
11th 23426
laughing 23425
sleeping 23424
und 23423
muttered 23422
listening 23421
deck 23420
tip 23419
77 23418
ownership 23417
grey 23416
Claire 23415
deeply 23414
provincial 23413
popularity 23412
Cooper 23411
##á 23410
Emily 23409
##sed 23408
designer 23407
Murray 23406
describe 23405
Danny 23404
Around 23403
Parker 23402
##dae 23401
68 23400
rates 23399
suffering 23398
considerable 23397
78 23396
nervous 23395
powered 23394
tons 23393
circumstances 23392
wished 23391
belonged 23390
Pittsburgh 23389
flows 23388
9th 23387
##use 23386
belt 23385
81 23384
useful 23383
15th 23382
context 23381
List 23380
Dead 23379
Iron 23378
seek 23377
Season 23376
worn 23375
frequency 23374
legislation 23373
replacement 23372
memories 23371
Tournament 23370
Again 23369
Barry 23368
organisation 23367
copy 23366
Gulf 23365
waters 23364
meets 23363
struggle 23362
Oliver 23361
1895 23360
Susan 23359
protest 23358
kick 23357
Alliance 23356
components 23355
1896 23354
Tower 23353
Windows 23352
demanded 23351
regiment 23350
sentence 23349
Woman 23348
Logan 23347
Referee 23346
hosts 23345
debate 23344
knee 23343
Blood 23342
##oo 23341
universities 23340
practices 23339
Ward 23338
ranking 23337
correct 23336
happening 23335
Vincent 23334
attracted 23333
classified 23332
##stic 23331
processes 23330
immediate 23329
waste 23328
increasingly 23327
Helen 23326
##po 23325
Lucas 23324
Phil 23323
organ 23322
1897 23321
tea 23320
suicide 23319
actors 23318
lb 23317
crash 23316
approval 23315
waves 23314
##ered 23313
hated 23312
grip 23311
700 23310
amongst 23309
69 23308
74 23307
hunting 23306
dying 23305
lasted 23304
illegal 23303
##rum 23302
stare 23301
defeating 23300
##gs 23299
shrugged 23298
°C 23297
Jon 23296
Count 23295
Orleans 23294
94 23293
affairs 23292
formally 23291
##and 23290
##ves 23289
criticized 23288
Disney 23287
Vol 23286
successor 23285
tests 23284
scholars 23283
palace 23282
Would 23281
celebrated 23280
rounds 23279
grant 23278
Schools 23277
Such 23276
commanded 23275
demon 23274
Romania 23273
##all 23272
Karl 23271
71 23270
##yn 23269
84 23268
Daily 23267
totally 23266
Medicine 23265
fruit 23264
Die 23263
upset 23262
Lower 23261
Conservative 23260
14th 23259
Mitchell 23258
escaped 23257
shoes 23256
Morris 23255
##tz 23254
queen 23253
harder 23252
prime 23251
Thanks 23250
indeed 23249
Sky 23248
authors 23247
rocks 23246
definition 23245
Nazi 23244
accounts 23243
printed 23242
experiences 23241
##ters 23240
divisions 23239
Cathedral 23238
denied 23237
depending 23236
Express 23235
##let 23234
73 23233
appeal 23232
loose 23231
colors 23230
filed 23229
##isation 23228
gender 23227
##ew 23226
throne 23225
forests 23224
Finland 23223
domain 23222
boats 23221
Baker 23220
squadron 23219
shore 23218
remove 23217
##ification 23216
careful 23215
wound 23214
railroad 23213
82 23212
seeking 23211
agents 23210
##ved 23209
Blues 23208
##off 23207
customers 23206
ignored 23205
net 23204
##ction 23203
hiding 23202
Originally 23201
declined 23200
##ess 23199
franchise 23198
eliminated 23197
NBA 23196
merely 23195
pure 23194
appropriate 23193
visiting 23192
forty 23191
markets 23190
offensive 23189
coverage 23188
cave 23187
##nia 23186
spell 23185
##lar 23184
Benjamin 23183
##ire 23182
Convention 23181
filmed 23180
Trade 23179
##sy 23178
##ct 23177
Having 23176
palm 23175
1889 23174
Evans 23173
intense 23172
plastic 23171
Julia 23170
document 23169
jeans 23168
vessel 23167
SR 23166
##fully 23165
proposal 23164
Birmingham 23163
le 23162
##ative 23161
assembly 23160
89 23159
fund 23158
lock 23157
1893 23156
AD 23155
meetings 23154
occupation 23153
modified 23152
Years 23151
odd 23150
aimed 23149
reform 23148
Mission 23147
Works 23146
shake 23145
cat 23144
exception 23143
convinced 23142
executed 23141
pushing 23140
dollars 23139
replacing 23138
soccer 23137
manufacturing 23136
##ros 23135
expensive 23134
kicked 23133
minimum 23132
Josh 23131
coastal 23130
Chase 23129
ha 23128
Thailand 23127
publications 23126
deputy 23125
Sometimes 23124
Angel 23123
effectively 23122
##illa 23121
criticism 23120
conduct 23119
Serbian 23118
landscape 23117
NY 23116
absence 23115
passage 23114
##ula 23113
Blake 23112
Indians 23111
1892 23110
admit 23109
Trophy 23108
##ball 23107
Next 23106
##rated 23105
##ians 23104
charts 23103
kW 23102
orchestra 23101
79 23100
heritage 23099
1894 23098
rough 23097
exists 23096
boundary 23095
Bible 23094
Legislative 23093
moon 23092
medieval 23091
##over 23090
cutting 23089
print 23088
##ett 23087
birthday 23086
##hood 23085
destruction 23084
Julian 23083
injuries 23082
influential 23081
sisters 23080
raising 23079
statue 23078
colour 23077
dancing 23076
characteristics 23075
orange 23074
##ok 23073
##aries 23072
Ken 23071
colonial 23070
twin 23069
Larry 23068
surviving 23067
##shi 23066
Barbara 23065
personality 23064
entertainment 23063
assault 23062
##ering 23061
talent 23060
happens 23059
license 23058
86 23057
couch 23056
Century 23055
soundtrack 23054
shower 23053
swimming 23052
cash 23051
Staff 23050
bent 23049
1885 23048
bay 23047
lunch 23046
##lus 23045
dozen 23044
vessels 23043
CBS 23042
greatly 23041
critic 23040
Test 23039
symbol 23038
panel 23037
shell 23036
output 23035
reaches 23034
87 23033
Front 23032
motor 23031
ocean 23030
##era 23029
##ala 23028
maintenance 23027
violent 23026
scent 23025
Limited 23024
Las 23023
Hope 23022
Theater 23021
Which 23020
survey 23019
Robin 23018
recordings 23017
compilation 23016
##ward 23015
bomb 23014
insurance 23013
Authority 23012
sponsored 23011
satellite 23010
Jazz 23009
refer 23008
stronger 23007
blow 23006
whilst 23005
Wrestling 23004
suggest 23003
##rie 23002
climbed 23001
##els 23000
voices 22999
shopping 22998
1891 22997
Neil 22996
discovery 22995
##vo 22994
##ations 22993
burst 22992
Baby 22991
peaked 22990
Brooklyn 22989
knocked 22988
lift 22987
##try 22986
false 22985
nations 22984
Hugh 22983
Catherine 22982
preserved 22981
distinguished 22980
terminal 22979
resolution 22978
ratio 22977
pants 22976
cited 22975
competitions 22974
completion 22973
DJ 22972
bone 22971
uniform 22970
schedule 22969
shouted 22968
83 22967
1920s 22966
rarely 22965
Basketball 22964
Taiwan 22963
artistic 22962
bare 22961
vampires 22960
arrest 22959
Utah 22958
Marcus 22957
assist 22956
gradually 22955
qualifying 22954
Victorian 22953
vast 22952
rival 22951
Warner 22950
Terry 22949
Economic 22948
##cia 22947
losses 22946
boss 22945
versus 22944
audio 22943
runner 22942
apply 22941
surgery 22940
Play 22939
twisted 22938
comfortable 22937
##cs 22936
Everyone 22935
guests 22934
##lt 22933
Harrison 22932
UEFA 22931
lowered 22930
occasions 22929
##lly 22928
##cher 22927
chapter 22926
youngest 22925
eighth 22924
Culture 22923
##room 22922
##stone 22921
1888 22920
Songs 22919
Seth 22918
Digital 22917
involvement 22916
expedition 22915
relationships 22914
signing 22913
1000 22912
fault 22911
annually 22910
circuit 22909
afterwards 22908
meat 22907
creature 22906
##ou 22905
cable 22904
Bush 22903
##net 22902
Hispanic 22901
rapid 22900
gonna 22899
figured 22898
extent 22897
considering 22896
cried 22895
##tin 22894
sigh 22893
dynasty 22892
##ration 22891
cabinet 22890
Richmond 22889
stable 22888
##zo 22887
1864 22886
Admiral 22885
Unit 22884
occasion 22883
shares 22882
badly 22881
longest 22880
##ify 22879
Connor 22878
extreme 22877
wondering 22876
girlfriend 22875
Studio 22874
##tions 22873
1865 22872
tribe 22871
exact 22870
muscles 22869
hat 22868
Luis 22867
Orthodox 22866
decisions 22865
amateur 22864
description 22863
##lis 22862
hips 22861
kingdom 22860
##ute 22859
Portland 22858
whereas 22857
Bachelor 22856
outer 22855
discussion 22854
partly 22853
Arkansas 22852
1880 22851
dreams 22850
perfectly 22849
Lloyd 22848
##bridge 22847
asleep 22846
##tti 22845
Greg 22844
permission 22843
trading 22842
pitch 22841
mill 22840
Stage 22839
liquid 22838
Keith 22837
##tal 22836
wolf 22835
processing 22834
stick 22833
Jerusalem 22832
profile 22831
rushed 22830
spiritual 22829
argument 22828
Ice 22827
Guy 22826
till 22825
Delhi 22824
roots 22823
Section 22822
missions 22821
Glasgow 22820
penalty 22819
NBC 22818
encouraged 22817
identify 22816
keyboards 22815
##zing 22814
##ston 22813
disc 22812
plain 22811
informed 22810
Bernard 22809
thinks 22808
fled 22807
Justin 22806
##day 22805
newspapers 22804
##wick 22803
Ralph 22802
##zer 22801
unlike 22800
Stars 22799
artillery 22798
##ified 22797
recovered 22796
arrangement 22795
searching 22794
##pers 22793
##tory 22792
##rus 22791
deaths 22790
Egyptian 22789
diameter 22788
##í 22787
marketing 22786
corporate 22785
teach 22784
marks 22783
Turner 22782
staying 22781
hallway 22780
Sebastian 22779
chapel 22778
naked 22777
mistake 22776
possession 22775
1887 22774
dominated 22773
jacket 22772
creative 22771
Fellow 22770
Falls 22769
Defence 22768
suspended 22767
employment 22766
##rry 22765
Hebrew 22764
Hudson 22763
Week 22762
Wars 22761
recognize 22760
Natural 22759
controversial 22758
Tommy 22757
thank 22756
Athletic 22755
benefits 22754
decline 22753
intention 22752
##ets 22751
Lost 22750
Wall 22749
participation 22748
elevation 22747
supports 22746
parliament 22745
1861 22744
concentration 22743
Movement 22742
##IS 22741
competing 22740
stops 22739
behalf 22738
##mm 22737
limits 22736
funded 22735
discuss 22734
Collins 22733
departure 22732
obtain 22731
woods 22730
latest 22729
universe 22728
alcohol 22727
Laura 22726
rush 22725
blade 22724
funny 22723
Dennis 22722
forgotten 22721
Amy 22720
Symphony 22719
apparent 22718
graduating 22717
1862 22716
Rob 22715
Grey 22714
collections 22713
Mason 22712
emotions 22711
##ugh 22710
literally 22709
Any 22708
counties 22707
1863 22706
nomination 22705
fighter 22704
habitat 22703
respond 22702
external 22701
Capital 22700
exit 22699
Video 22698
carbon 22697
sharing 22696
Bad 22695
opportunities 22694
Perry 22693
photo 22692
##mus 22691
Orange 22690
posted 22689
remainder 22688
transportation 22687
portrayed 22686
Labor 22685
recommended 22684
percussion 22683
rated 22682
Grade 22681
rivers 22680
partially 22679
suspected 22678
strip 22677
adults 22676
button 22675
struggled 22674
intersection 22673
Canal 22672
##ability 22671
poems 22670
claiming 22669
Madrid 22668
1886 22667
Together 22666
##our 22665
Much 22664
Vancouver 22663
instrument 22662
instrumental 22661
1870 22660
mad 22659
angle 22658
Control 22657
Phoenix 22656
Leo 22655
Communications 22654
mail 22653
##ette 22652
##ev 22651
preferred 22650
adaptation 22649
alleged 22648
discussed 22647
deeper 22646
##ane 22645
Yet 22644
Monday 22643
volumes 22642
thrown 22641
Zane 22640
##logy 22639
displayed 22638
rolling 22637
dogs 22636
Along 22635
Todd 22634
##ivity 22633
withdrew 22632
representation 22631
belief 22630
##sia 22629
crown 22628
Late 22627
Short 22626
hardly 22625
grinned 22624
romantic 22623
Pete 22622
##ken 22621
networks 22620
enemies 22619
Colin 22618
Eventually 22617
Side 22616
donated 22615
##su 22614
steady 22613
grab 22612
guide 22611
Finnish 22610
Milan 22609
pregnant 22608
controversy 22607
reminded 22606
1884 22605
Stuart 22604
##bach 22603
##ade 22602
Race 22601
Belgian 22600
LP 22599
Production 22598
Zone 22597
lieutenant 22596
infantry 22595
Child 22594
confusion 22593
sang 22592
resident 22591
##ez 22590
victim 22589
1881 22588
channels 22587
Ron 22586
businessman 22585
##gle 22584
Dick 22583
colony 22582
pace 22581
producers 22580
##ese 22579
agencies 22578
Craig 22577
Lucy 22576
Very 22575
centers 22574
Yorkshire 22573
photography 22572
##ched 22571
Album 22570
championships 22569
Metro 22568
substantial 22567
Standard 22566
terrible 22565
directors 22564
contribution 22563
advertising 22562
emotional 22561
##its 22560
layer 22559
segment 22558
sir 22557
folded 22556
Roberts 22555
ceased 22554
Hampshire 22553
##ray 22552
detailed 22551
partners 22550
m² 22549
##pt 22548
Beth 22547
genre 22546
commented 22545
generated 22544
remote 22543
aim 22542
Hans 22541
credits 22540
concerts 22539
periods 22538
breakfast 22537
gay 22536
shadow 22535
defence 22534
Too 22533
Had 22532
transition 22531
Afghanistan 22530
##book 22529
eggs 22528
defend 22527
##lli 22526
writes 22525
Systems 22524
bones 22523
mess 22522
seed 22521
scientists 22520
Shortly 22519
Romanian 22518
##zy 22517
Freedom 22516
muscle 22515
hero 22514
parent 22513
agriculture 22512
checked 22511
Islam 22510
Bristol 22509
Freyja 22508
Arena 22507
cabin 22506
Germans 22505
electricity 22504
ranks 22503
viewed 22502
medals 22501
Wolf 22500
associate 22499
Madison 22498
Sorry 22497
fort 22496
Chile 22495
detail 22494
widespread 22493
attorney 22492
boyfriend 22491
##nan 22490
Students 22489
Spencer 22488
##ig 22487
bite 22486
Maine 22485
demolished 22484
Lisa 22483
erected 22482
Someone 22481
operational 22480
Commissioner 22479
NHL 22478
Coach 22477
Bar 22476
forcing 22475
Dream 22474
Rico 22473
cargo 22472
Murphy 22471
##fish 22470
##ase 22469
distant 22468
##master 22467
##ora 22466
Organization 22465
doorway 22464
Steven 22463
traded 22462
electrical 22461
frequent 22460
##wn 22459
Branch 22458
Sure 22457
1882 22456
placing 22455
Manhattan 22454
attending 22453
attributed 22452
excellent 22451
pounds 22450
ruling 22449
principles 22448
component 22447
Mediterranean 22446
Vegas 22445
machines 22444
percentage 22443
infrastructure 22442
throwing 22441
affiliated 22440
Kings 22439
secured 22438
Caribbean 22437
Track 22436
Ted 22435
honour 22434
opponent 22433
Virgin 22432
Construction 22431
grave 22430
produces 22429
Challenge 22428
stretched 22427
paying 22426
murmured 22425
##ata 22424
integrated 22423
waved 22422
Nathan 22421
##ator 22420
transmission 22419
videos 22418
##yan 22417
##hu 22416
Nova 22415
descent 22414
AM 22413
Harold 22412
conservative 22411
Therefore 22410
venue 22409
competitive 22408
##ui 22407
conclusion 22406
funeral 22405
confidence 22404
releases 22403
scholar 22402
##sson 22401
Treaty 22400
stress 22399
mood 22398
##sm 22397
Mac 22396
residing 22395
Action 22394
Fund 22393
##ship 22392
animated 22391
fitted 22390
##kar 22389
defending 22388
voting 22387
tend 22386
##berry 22385
answers 22384
believes 22383
##ci 22382
helps 22381
Aaron 22380
##tis 22379
themes 22378
##lay 22377
populations 22376
Players 22375
stroke 22374
Trinity 22373
electoral 22372
paint 22371
abroad 22370
charity 22369
keys 22368
Fair 22367
##pes 22366
interrupted 22365
participants 22364
murdered 22363
Days 22362
supporters 22361
##ab 22360
expert 22359
borders 22358
mate 22357
##llo 22356
solar 22355
architectural 22354
tension 22353
##bling 22352
Parish 22351
tape 22350
operator 22349
Cultural 22348
Clinton 22347
indicates 22346
publisher 22345
ordinary 22344
sugar 22343
arrive 22342
rifle 22341
acoustic 22340
##uring 22339
assets 22338
##shire 22337
SS 22336
sufficient 22335
options 22334
HMS 22333
Classic 22332
bars 22331
rebuilt 22330
governments 22329
Beijing 22328
reporter 22327
screamed 22326
Abbey 22325
crying 22324
mechanical 22323
instantly 22322
communications 22321
Political 22320
cemetery 22319
Cameron 22318
Stop 22317
representatives 22316
USS 22315
texts 22314
mathematics 22313
innings 22312
civilian 22311
Serbia 22310
##hill 22309
practical 22308
patterns 22307
dust 22306
Faculty 22305
debt 22304
##end 22303
##cus 22302
junction 22301
suppose 22300
experimental 22299
Computer 22298
Food 22297
wrist 22296
abuse 22295
dealing 22294
bigger 22293
cap 22292
principle 22291
##pin 22290
Muhammad 22289
Fleet 22288
Collection 22287
attempting 22286
dismissed 22285
##burn 22284
regime 22283
Herbert 22282
##ua 22281
shadows 22280
1883 22279
Eve 22278
Lanka 22277
1878 22276
Performance 22275
fictional 22274
##lock 22273
Noah 22272
Run 22271
Voivodeship 22270
exercise 22269
broadcasting 22268
##fer 22267
RAF 22266
Magic 22265
Bangladesh 22264
suitable 22263
##low 22262
##del 22261
styles 22260
toured 22259
Code 22258
identical 22257
links 22256
insisted 22255
110 22254
flash 22253
Model 22252
slave 22251
Derek 22250
Rev 22249
fairly 22248
Greater 22247
sole 22246
##lands 22245
connecting 22244
zero 22243
bench 22242
##ome 22241
switched 22240
Fall 22239
Owen 22238
yours 22237
Electric 22236
shocked 22235
convention 22234
##bra 22233
climb 22232
memorial 22231
swept 22230
Racing 22229
decides 22228
belong 22227
##nk 22226
parliamentary 22225
##und 22224
ages 22223
proof 22222
##dan 22221
delivery 22220
1860 22219
##ów 22218
sad 22217
publicly 22216
leaning 22215
Archbishop 22214
dirt 22213
##ose 22212
categories 22211
1876 22210
burn 22209
##bing 22208
requested 22207
Guinea 22206
Historical 22205
rhythm 22204
relation 22203
##heim 22202
ye 22201
pursue 22200
merchant 22199
##mes 22198
lists 22197
continuous 22196
frowned 22195
colored 22194
tool 22193
gods 22192
involves 22191
Duncan 22190
photographs 22189
Cricket 22188
slight 22187
Gregory 22186
atmosphere 22185
wider 22184
Cook 22183
##tar 22182
essential 22181
Being 22180
FA 22179
emperor 22178
wealthy 22177
nights 22176
##bar 22175
licensed 22174
Hawaii 22173
viewers 22172
Language 22171
load 22170
nearest 22169
milk 22168
kilometers 22167
platforms 22166
##ys 22165
territories 22164
Rogers 22163
sheet 22162
Rangers 22161
contested 22160
##lation 22159
isolated 22158
assisted 22157
swallowed 22156
Small 22155
Contemporary 22154
Technical 22153
Edwards 22152
express 22151
Volume 22150
endemic 22149
##ei 22148
tightly 22147
Whatever 22146
indigenous 22145
Colombia 22144
##ulation 22143
hp 22142
characterized 22141
##ida 22140
Nigeria 22139
Professional 22138
duo 22137
Soccer 22136
slaves 22135
Farm 22134
smart 22133
Attorney 22132
Attendance 22131
Common 22130
salt 22129
##vin 22128
tribes 22127
nod 22126
sentenced 22125
bid 22124
sample 22123
Drive 22122
switch 22121
instant 22120
21st 22119
Cuba 22118
drunk 22117
Alaska 22116
proud 22115
awareness 22114
hitting 22113
sessions 22112
Thai 22111
locally 22110
elsewhere 22109
Dragon 22108
gentle 22107
touching 22106
##lee 22105
Springs 22104
Universal 22103
Latino 22102
spin 22101
1871 22100
Chart 22099
recalled 22098
Type 22097
pointing 22096
##ii 22095
lowest 22094
##ser 22093
grandmother 22092
Adelaide 22091
Jacques 22090
spotted 22089
Buffalo 22088
restoration 22087
Son 22086
Joan 22085
farmers 22084
Lily 22083
1879 22082
lucky 22081
##dal 22080
luck 22079
eldest 22078
##rant 22077
Market 22076
drummer 22075
deployed 22074
warned 22073
prince 22072
sing 22071
amazing 22070
sailed 22069
##oon 22068
1875 22067
Primary 22066
traveling 22065
Masters 22064
Sara 22063
cattle 22062
Trail 22061
gang 22060
Further 22059
desert 22058
relocated 22057
##tch 22056
##ord 22055
Flight 22054
illness 22053
Munich 22052
ninth 22051
repair 22050
Singles 22049
##lated 22048
Tyler 22047
tossed 22046
boots 22045
Work 22044
sized 22043
earning 22042
shoved 22041
magazines 22040
housed 22039
dam 22038
researchers 22037
Former 22036
spun 22035
premiere 22034
spaces 22033
organised 22032
wealth 22031
crimes 22030
devoted 22029
stones 22028
Urban 22027
automatic 22026
hop 22025
affect 22024
outstanding 22023
tanks 22022
mechanism 22021
Muslims 22020
Ms 22019
shots 22018
argue 22017
Jeremy 22016
connections 22015
Armenian 22014
increases 22013
rubbed 22012
1867 22011
retail 22010
gear 22009
Pan 22008
bonus 22007
jurisdiction 22006
weird 22005
concerning 22004
whisper 22003
##gal 22002
Microsoft 22001
tenure 22000
hills 21999
www 21998
Gmina 21997
porch 21996
files 21995
reportedly 21994
venture 21993
Storm 21992
##ence 21991
Nature 21990
killer 21989
panic 21988
fate 21987
Secret 21986
Wang 21985
scream 21984
drivers 21983
belongs 21982
Chamber 21981
clan 21980
monument 21979
mixing 21978
Peru 21977
bet 21976
Riley 21975
Friends 21974
Isaac 21973
submarine 21972
1877 21971
130 21970
judges 21969
harm 21968
ranging 21967
affair 21966
prepare 21965
pupils 21964
householder 21963
Policy 21962
decorated 21961
Nation 21960
slammed 21959
activist 21958
implemented 21957
Room 21956
qualify 21955
Publishing 21954
establishing 21953
Baptist 21952
touring 21951
subsidiary 21950
##nal 21949
legend 21948
1872 21947
laughter 21946
PC 21945
Athens 21944
settlers 21943
ties 21942
dual 21941
dear 21940
Draft 21939
strategic 21938
Ivan 21937
reveal 21936
closest 21935
dominant 21934
Ah 21933
##ult 21932
Denver 21931
bond 21930
boundaries 21929
drafted 21928
tables 21927
##TV 21926
eyed 21925
Edition 21924
##ena 21923
1868 21922
belonging 21921
1874 21920
Industrial 21919
cream 21918
Ridge 21917
Hindu 21916
scholarship 21915
Ma 21914
opens 21913
initiated 21912
##ith 21911
yelled 21910
compound 21909
random 21908
Throughout 21907
grades 21906
physics 21905
sank 21904
grows 21903
exclusively 21902
settle 21901
Saints 21900
brings 21899
Amsterdam 21898
Make 21897
Hart 21896
walks 21895
battery 21894
violin 21893
##born 21892
explanation 21891
##ware 21890
1873 21889
##har 21888
provinces 21887
thrust 21886
exclusive 21885
sculpture 21884
shops 21883
##fire 21882
VI 21881
constitution 21880
Barcelona 21879
monster 21878
Devon 21877
Jefferson 21876
Sullivan 21875
bow 21874
##din 21873
desperate 21872
##ć 21871
Julie 21870
##mon 21869
##ising 21868
terminus 21867
Jesse 21866
abilities 21865
golf 21864
##ple 21863
##via 21862
##away 21861
Raymond 21860
measured 21859
jury 21858
firing 21857
revenue 21856
suburb 21855
Bulgarian 21854
1866 21853
##cha 21852
timber 21851
Things 21850
##weight 21849
Morning 21848
spots 21847
Alberta 21846
Data 21845
explains 21844
Kyle 21843
friendship 21842
raw 21841
tube 21840
demonstrated 21839
aboard 21838
immigrants 21837
reply 21836
breathe 21835
Manager 21834
ease 21833
##ban 21832
##dia 21831
Diocese 21830
##vy 21829
##ía 21828
pit 21827
ongoing 21826
##lie 21825
Gilbert 21824
Costa 21823
1940s 21822
Report 21821
voters 21820
cloud 21819
traditions 21818
##MS 21817
gallery 21816
Jennifer 21815
swung 21814
Broadcasting 21813
Does 21812
diverse 21811
reveals 21810
arriving 21809
initiative 21808
##ani 21807
Give 21806
Allied 21805
Pat 21804
Outstanding 21803
monastery 21802
blind 21801
Currently 21800
##war 21799
bloody 21798
stopping 21797
focuses 21796
managing 21795
Florence 21794
Harvey 21793
creatures 21792
900 21791
breast 21790
internet 21789
Artillery 21788
purple 21787
##mate 21786
alliance 21785
excited 21784
fee 21783
Brisbane 21782
lifetime 21781
Private 21780
##aw 21779
##nis 21778
##gue 21777
##ika 21776
phrase 21775
regulations 21774
reflected 21773
manufactured 21772
conventional 21771
pleased 21770
client 21769
##ix 21768
##ncy 21767
Pedro 21766
reduction 21765
##con 21764
welcome 21763
jail 21762
comfort 21761
Iranian 21760
Norfolk 21759
Dakota 21758
##tein 21757
evolution 21756
everywhere 21755
Initially 21754
sensitive 21753
Olivia 21752
Oscar 21751
implementation 21750
sits 21749
stolen 21748
demands 21747
slide 21746
grandson 21745
##ich 21744
merger 21743
##mic 21742
Spirit 21741
##° 21740
ticket 21739
root 21738
difficulty 21737
Nevada 21736
##als 21735
lined 21734
Dylan 21733
Original 21732
Call 21731
biological 21730
EU 21729
dramatic 21728
##hn 21727
Operations 21726
treaty 21725
gap 21724
##list 21723
Am 21722
Romanized 21721
moral 21720
Butler 21719
perspective 21718
Furthermore 21717
Manuel 21716
absolutely 21715
unsuccessful 21714
disaster 21713
dispute 21712
preparation 21711
tested 21710
discover 21709
##ach 21708
shield 21707
squeezed 21706
brushed 21705
battalion 21704
Arnold 21703
##ras 21702
superior 21701
treat 21700
clinical 21699
##so 21698
Apple 21697
Syria 21696
Cincinnati 21695
package 21694
flights 21693
editions 21692
Leader 21691
minority 21690
wonderful 21689
hang 21688
Pop 21687
Philippine 21686
telephone 21685
bell 21684
honorary 21683
##mar 21682
balls 21681
Democrat 21680
dirty 21679
thereafter 21678
collapsed 21677
Inside 21676
slip 21675
wrestling 21674
##ín 21673
listened 21672
regard 21671
bowl 21670
None 21669
Sport 21668
completing 21667
trapped 21666
##view 21665
copper 21664
Wallace 21663
Honor 21662
blame 21661
Peninsula 21660
##ert 21659
##oy 21658
Anglo 21657
bearing 21656
simultaneously 21655
honest 21654
##ias 21653
Mix 21652
Got 21651
speaker 21650
voiced 21649
impressed 21648
prices 21647
error 21646
1869 21645
##feld 21644
trials 21643
Nine 21642
Industry 21641
substitute 21640
Municipal 21639
departed 21638
slept 21637
##ama 21636
Junction 21635
Socialist 21634
flower 21633
dropping 21632
comment 21631
fantasy 21630
##ress 21629
arrangements 21628
travelled 21627
furniture 21626
fist 21625
relieved 21624
##tics 21623
Leonard 21622
linear 21621
earn 21620
expand 21619
Soul 21618
Plan 21617
Leeds 21616
Sierra 21615
accessible 21614
innocent 21613
Winner 21612
Fighter 21611
Range 21610
winds 21609
vertical 21608
Pictures 21607
101 21606
charter 21605
cooperation 21604
prisoner 21603
interviews 21602
recognised 21601
sung 21600
manufacturer 21599
exposure 21598
submitted 21597
Mars 21596
leaf 21595
gauge 21594
screaming 21593
likes 21592
eligible 21591
##ac 21590
gathering 21589
columns 21588
##dra 21587
belly 21586
UN 21585
maps 21584
messages 21583
speakers 21582
##ants 21581
garage 21580
unincorporated 21579
Number 21578
Watson 21577
sixteen 21576
lots 21575
beaten 21574
Could 21573
Municipality 21572
##ano 21571
Horse 21570
talks 21569
Drake 21568
scores 21567
Venice 21566
genetic 21565
##mal 21564
##ère 21563
Cold 21562
Jose 21561
nurse 21560
traditionally 21559
##bus 21558
Territory 21557
Key 21556
Nancy 21555
##win 21554
thumb 21553
São 21552
index 21551
dependent 21550
carries 21549
controls 21548
Comics 21547
coalition 21546
physician 21545
referring 21544
Ruth 21543
Based 21542
restricted 21541
inherited 21540
internationally 21539
stretch 21538
THE 21537
plates 21536
margin 21535
Holland 21534
knock 21533
significance 21532
valuable 21531
Kenya 21530
carved 21529
emotion 21528
conservation 21527
municipalities 21526
overseas 21525
resumed 21524
Finance 21523
graduation 21522
blinked 21521
temperatures 21520
constantly 21519
productions 21518
scientist 21517
ghost 21516
cuts 21515
permitted 21514
##ches 21513
firmly 21512
##bert 21511
patrol 21510
##yo 21509
Croatian 21508
attacking 21507
1850 21506
portrait 21505
promoting 21504
sink 21503
conversion 21502
##kov 21501
locomotives 21500
Guide 21499
##val 21498
nephew 21497
relevant 21496
Marc 21495
drum 21494
originated 21493
Chair 21492
visits 21491
dragged 21490
Price 21489
favour 21488
corridor 21487
properly 21486
respective 21485
Caroline 21484
reporting 21483
inaugural 21482
1848 21481
industries 21480
##ching 21479
edges 21478
Christianity 21477
Maurice 21476
Trent 21475
Economics 21474
carrier 21473
Reed 21472
##gon 21471
tribute 21470
Pradesh 21469
##ale 21468
extend 21467
attitude 21466
Yale 21465
##lu 21464
settlements 21463
glasses 21462
taxes 21461
targets 21460
##ids 21459
quarters 21458
##ological 21457
connect 21456
hence 21455
metre 21454
collapse 21453
underneath 21452
banned 21451
Future 21450
clients 21449
alternate 21448
explosion 21447
kinds 21446
Commons 21445
hungry 21444
dragon 21443
Chapel 21442
Buddhist 21441
lover 21440
depression 21439
pulls 21438
##ges 21437
##uk 21436
origins 21435
computers 21434
crosses 21433
kissing 21432
assume 21431
emphasis 21430
lighting 21429
##ites 21428
personally 21427
crashed 21426
beam 21425
touchdown 21424
lane 21423
comparison 21422
##mont 21421
Hitler 21420
##las 21419
execution 21418
##ene 21417
acre 21416
sum 21415
Pearl 21414
ray 21413
##point 21412
essentially 21411
worker 21410
convicted 21409
tear 21408
Clay 21407
recovery 21406
Literature 21405
Unfortunately 21404
##row 21403
partial 21402
Petersburg 21401
Bulgaria 21400
coaching 21399
evolved 21398
reception 21397
enters 21396
narrowed 21395
elevator 21394
therapy 21393
defended 21392
pairs 21391
##lam 21390
breaks 21389
Bennett 21388
Uncle 21387
cylinder 21386
##ison 21385
passion 21384
bases 21383
Actor 21382
cancelled 21381
battles 21380
extensively 21379
oxygen 21378
Ancient 21377
specialized 21376
negotiations 21375
##rat 21374
acquisition 21373
convince 21372
interpretation 21371
##00 21370
photos 21369
aspect 21368
colleges 21367
Artist 21366
keeps 21365
##wing 21364
Croatia 21363
##ona 21362
Hughes 21361
Otto 21360
comments 21359
##du 21358
Ph 21357
Sweet 21356
adventure 21355
describing 21354
Student 21353
Shakespeare 21352
scattered 21351
objective 21350
Aviation 21349
Phillips 21348
Fourth 21347
athletes 21346
##hal 21345
##tered 21344
Guitar 21343
intensity 21342
née 21341
dining 21340
curve 21339
Obama 21338
topics 21337
legislative 21336
Mill 21335
Cruz 21334
##ars 21333
Members 21332
recipient 21331
Derby 21330
inspiration 21329
corresponding 21328
fed 21327
YouTube 21326
coins 21325
pressing 21324
intent 21323
Karen 21322
cinema 21321
Delta 21320
destination 21319
shorter 21318
Christians 21317
imagined 21316
canal 21315
Newcastle 21314
Shah 21313
Adrian 21312
super 21311
Males 21310
160 21309
liberal 21308
lord 21307
bat 21306
supplied 21305
Claude 21304
meal 21303
worship 21302
##atic 21301
Han 21300
wire 21299
°F 21298
##tha 21297
punishment 21296
thirteen 21295
fighters 21294
##ibility 21293
1859 21292
Ball 21291
gardens 21290
##ari 21289
Ottawa 21288
pole 21287
indicating 21286
Twenty 21285
Higher 21284
Bass 21283
Ivy 21282
farming 21281
##urs 21280
certified 21279
Saudi 21278
plenty 21277
##ces 21276
restaurants 21275
Representative 21274
Miles 21273
payment 21272
##inger 21271
##rit 21270
Confederate 21269
festivals 21268
references 21267
##ić 21266
Mario 21265
PhD 21264
playoffs 21263
witness 21262
rice 21261
mask 21260
saving 21259
opponents 21258
enforcement 21257
automatically 21256
relegated 21255
##oe 21254
radar 21253
whenever 21252
Financial 21251
imperial 21250
uncredited 21249
influences 21248
Abraham 21247
skull 21246
Guardian 21245
Haven 21244
Bengal 21243
impressive 21242
input 21241
mixture 21240
Warsaw 21239
altitude 21238
distinction 21237
1857 21236
collective 21235
Annie 21234
##ean 21233
##bal 21232
directions 21231
Flying 21230
##nic 21229
faded 21228
##ella 21227
contributing 21226
##ó 21225
employee 21224
##lum 21223
##yl 21222
ruler 21221
oriented 21220
conductor 21219
focusing 21218
##die 21217
Giants 21216
Mills 21215
mines 21214
Deep 21213
curled 21212
Jessica 21211
guitars 21210
Louise 21209
procedure 21208
Machine 21207
failing 21206
attendance 21205
Nepal 21204
Brad 21203
Liam 21202
tourist 21201
exhibited 21200
Sophie 21199
depicted 21198
Shaw 21197
Chuck 21196
##can 21195
expecting 21194
challenges 21193
##nda 21192
equally 21191
resignation 21190
##logical 21189
Tigers 21188
loop 21187
pitched 21186
outdoor 21185
reviewed 21184
hopes 21183
True 21182
temporarily 21181
Borough 21180
torn 21179
jerked 21178
collect 21177
Berkeley 21176
Independence 21175
cotton 21174
retreat 21173
campaigns 21172
participating 21171
Intelligence 21170
Heaven 21169
##ked 21168
situations 21167
borough 21166
Democrats 21165
Harbor 21164
##len 21163
Liga 21162
serial 21161
circles 21160
fourteen 21159
##lot 21158
seized 21157
filling 21156
departments 21155
finance 21154
absolute 21153
Roland 21152
Nate 21151
floors 21150
raced 21149
struggling 21148
deliver 21147
protests 21146
##tel 21145
Exchange 21144
efficient 21143
experiments 21142
##dar 21141
faint 21140
3D 21139
binding 21138
Lions 21137
lightly 21136
skill 21135
proteins 21134
difficulties 21133
##cal 21132
monthly 21131
camps 21130
flood 21129
loves 21128
Amanda 21127
Commerce 21126
##oid 21125
##lies 21124
elementary 21123
##tre 21122
organic 21121
##stein 21120
##ph 21119
receives 21118
Tech 21117
enormous 21116
distinctive 21115
Joint 21114
experiment 21113
Circuit 21112
citizen 21111
##hy 21110
shelter 21109
ideal 21108
practically 21107
formula 21106
addressed 21105
Foster 21104
Productions 21103
##ax 21102
variable 21101
punk 21100
Voice 21099
fastest 21098
concentrated 21097
##oma 21096
##yer 21095
stored 21094
surrender 21093
vary 21092
Sergeant 21091
Wells 21090
ward 21089
Wait 21088
##ven 21087
playoff 21086
reducing 21085
cavalry 21084
##dle 21083
Venezuela 21082
tissue 21081
amounts 21080
sweat 21079
##we 21078
Non 21077
##nik 21076
beetle 21075
##bu 21074
##tu 21073
Jared 21072
Hunt 21071
##₂ 21070
fat 21069
Sultan 21068
Living 21067
Circle 21066
Secondary 21065
Suddenly 21064
reverse 21063
##min 21062
Travel 21061
##bin 21060
Lebanon 21059
##mas 21058
virus 21057
Wind 21056
dissolved 21055
enrolled 21054
holiday 21053
Keep 21052
helicopter 21051
Clarke 21050
constitutional 21049
technologies 21048
doubles 21047
instructions 21046
##ace 21045
Azerbaijan 21044
##ill 21043
occasional 21042
frozen 21041
trick 21040
wiped 21039
writings 21038
Shanghai 21037
preparing 21036
challenged 21035
mainstream 21034
summit 21033
180 21032
##arian 21031
##rating 21030
designation 21029
##ada 21028
revenge 21027
filming 21026
tightened 21025
Miguel 21024
Montana 21023
reflect 21022
celebration 21021
bitch 21020
flashed 21019
signals 21018
rounded 21017
peoples 21016
##tation 21015
renowned 21014
Google 21013
characteristic 21012
Campaign 21011
sliding 21010
##rman 21009
usage 21008
Record 21007
Using 21006
woke 21005
solutions 21004
holes 21003
theories 21002
logo 21001
Protestant 21000
relaxed 20999
brow 20998
nickname 20997
Reading 20996
marble 20995
##tro 20994
symptoms 20993
Overall 20992
capita 20991
##ila 20990
outbreak 20989
revolution 20988
deemed 20987
Principal 20986
Hannah 20985
approaches 20984
inducted 20983
Wellington 20982
vulnerable 20981
Environmental 20980
Drama 20979
incumbent 20978
Dame 20977
1854 20976
travels 20975
samples 20974
accurate 20973
physically 20972
Sony 20971
Nashville 20970
##sville 20969
##lic 20968
##og 20967
Producer 20966
Lucky 20965
tough 20964
Stanford 20963
resort 20962
repeatedly 20961
eyebrows 20960
Far 20959
choir 20958
commenced 20957
##ep 20956
##ridge 20955
rage 20954
swing 20953
sequel 20952
heir 20951
buses 20950
ad 20949
Grove 20948
##late 20947
##rick 20946
updated 20945
##SA 20944
Delaware 20943
##fa 20942
Athletics 20941
warmth 20940
Off 20939
excitement 20938
verse 20937
Protection 20936
Villa 20935
corruption 20934
intellectual 20933
Jenny 20932
##lyn 20931
mystery 20930
prayer 20929
healthy 20928
##ologist 20927
Bear 20926
lab 20925
Ernest 20924
Remix 20923
register 20922
basement 20921
Montgomery 20920
consistent 20919
tier 20918
1855 20917
Preston 20916
Brooks 20915
##maker 20914
vocalist 20913
laboratory 20912
delayed 20911
wheels 20910
rope 20909
bachelor 20908
pitcher 20907
Block 20906
Nevertheless 20905
suspect 20904
efficiency 20903
Nebraska 20902
siege 20901
FBI 20900
planted 20899
##AC 20898
Newton 20897
breeding 20896
##ain 20895
eighteen 20894
Argentine 20893
encounter 20892
servant 20891
1858 20890
elder 20889
Shadow 20888
Episode 20887
fabric 20886
doctors 20885
survival 20884
removal 20883
chemistry 20882
volunteers 20881
Kane 20880
variant 20879
arrives 20878
Eagle 20877
Left 20876
##fe 20875
Jo 20874
divorce 20873
##ret 20872
yesterday 20871
Bryan 20870
handling 20869
diseases 20868
customer 20867
Sheriff 20866
Tiger 20865
Harper 20864
##oi 20863
resting 20862
Linda 20861
Sheffield 20860
gasped 20859
sexy 20858
economics 20857
alien 20856
tale 20855
footage 20854
Liberty 20853
yeah 20852
fundamental 20851
Ground 20850
flames 20849
Actress 20848
photographer 20847
Maggie 20846
Additional 20845
joke 20844
custom 20843
Survey 20842
Abu 20841
silk 20840
consumption 20839
Ellis 20838
bread 20837
##uous 20836
engagement 20835
puts 20834
Dog 20833
##hr 20832
poured 20831
guilt 20830
CDP 20829
boxes 20828
hardware 20827
clenched 20826
##cio 20825
stem 20824
arena 20823
extending 20822
##com 20821
examination 20820
Steel 20819
encountered 20818
revised 20817
140 20816
picking 20815
Car 20814
hasn 20813
Minor 20812
pride 20811
Roosevelt 20810
boards 20809
##mia 20808
blocked 20807
curious 20806
drag 20805
narrative 20804
brigade 20803
Prefecture 20802
mysterious 20801
namely 20800
connects 20799
Devil 20798
historians 20797
CHAPTER 20796
quit 20795
installation 20794
Golf 20793
empire 20792
elevated 20791
##eo 20790
releasing 20789
Bond 20788
##uri 20787
harsh 20786
ban 20785
##BA 20784
contracts 20783
cloth 20782
presents 20781
stake 20780
chorus 20779
##eau 20778
swear 20777
##mp 20776
allies 20775
generations 20774
Motor 20773
meter 20772
pen 20771
warrior 20770
veteran 20769
##EC 20768
comprehensive 20767
missile 20766
interaction 20765
instruction 20764
Renaissance 20763
rested 20762
Dale 20761
fix 20760
fluid 20759
les 20758
investigate 20757
loaded 20756
widow 20755
exhibit 20754
artificial 20753
select 20752
rushing 20751
tasks 20750
signature 20749
nowhere 20748
Engineer 20747
feared 20746
Prague 20745
bother 20744
extinct 20743
gates 20742
Bird 20741
climbing 20740
heels 20739
striking 20738
artwork 20737
hunt 20736
awake 20735
##hin 20734
Formula 20733
thereby 20732
commitment 20731
imprisoned 20730
Beyond 20729
##MA 20728
transformed 20727
Agriculture 20726
Low 20725
Movie 20724
radical 20723
complicated 20722
Yellow 20721
Auckland 20720
mansion 20719
tenth 20718
Trevor 20717
predecessor 20716
##eer 20715
disbanded 20714
sucked 20713
circular 20712
witch 20711
gaining 20710
lean 20709
Behind 20708
illustrated 20707
rang 20706
celebrate 20705
bike 20704
consist 20703
framework 20702
##cent 20701
Shane 20700
owns 20699
350 20698
comprises 20697
collaborated 20696
colleagues 20695
##cast 20694
engage 20693
fewer 20692
##ave 20691
1856 20690
observation 20689
diplomatic 20688
legislature 20687
improvements 20686
Interstate 20685
craft 20684
MTV 20683
martial 20682
administered 20681
jet 20680
approaching 20679
permanently 20678
attraction 20677
manuscript 20676
numbered 20675
Happy 20674
Andrea 20673
shallow 20672
Gothic 20671
Anti 20670
##bad 20669
improvement 20668
trace 20667
preserve 20666
regardless 20665
rode 20664
dies 20663
achievement 20662
maintaining 20661
Hamburg 20660
spine 20659
##air 20658
flowing 20657
encourage 20656
widened 20655
posts 20654
##bound 20653
125 20652
Southeast 20651
Santiago 20650
##bles 20649
impression 20648
receiver 20647
Single 20646
closure 20645
##unt 20644
communist 20643
honors 20642
Northwest 20641
105 20640
##ulated 20639
cared 20638
un 20637
hug 20636
magnetic 20635
seeds 20634
topic 20633
perceived 20632
prey 20631
prevented 20630
Marvel 20629
Eight 20628
Michel 20627
Transportation 20626
rings 20625
Gate 20624
##gne 20623
Byzantine 20622
accommodate 20621
floating 20620
##dor 20619
equation 20618
ministry 20617
##ito 20616
##gled 20615
Rules 20614
earthquake 20613
revealing 20612
Brother 20611
Celtic 20610
blew 20609
chairs 20608
Panama 20607
Leon 20606
attractive 20605
descendants 20604
Care 20603
Ambassador 20602
tours 20601
breathed 20600
threatening 20599
##cho 20598
smiles 20597
Lt 20596
Beginning 20595
##iness 20594
fake 20593
assists 20592
fame 20591
strings 20590
Mobile 20589
Liu 20588
parks 20587
http 20586
1852 20585
brush 20584
Aunt 20583
bullet 20582
consciousness 20581
##sta 20580
##ther 20579
consequences 20578
gather 20577
dug 20576
1851 20575
bridges 20574
Doug 20573
##sion 20572
Artists 20571
ignore 20570
Carol 20569
brilliant 20568
radiation 20567
temples 20566
basin 20565
clouds 20564
##cted 20563
Stevens 20562
spite 20561
soap 20560
consumer 20559
Damn 20558
Snow 20557
recruited 20556
##craft 20555
Advanced 20554
tournaments 20553
Quinn 20552
undergraduate 20551
questioned 20550
Palmer 20549
Annual 20548
Others 20547
feeding 20546
Spider 20545
printing 20544
##orn 20543
cameras 20542
functional 20541
Chester 20540
readers 20539
Alpha 20538
universal 20537
Faith 20536
Brandon 20535
François 20534
authored 20533
Ring 20532
el 20531
aims 20530
athletic 20529
possessed 20528
Vermont 20527
programmes 20526
##uck 20525
bore 20524
Fisher 20523
statements 20522
shed 20521
saxophone 20520
neighboring 20519
pronounced 20518
barrel 20517
bags 20516
##dge 20515
organisations 20514
pilots 20513
casualties 20512
Kenneth 20511
##brook 20510
silently 20509
Malcolm 20508
span 20507
Essex 20506
anchor 20505
##hl 20504
virtual 20503
lessons 20502
Henri 20501
Trump 20500
Page 20499
pile 20498
locomotive 20497
wounds 20496
uncomfortable 20495
sustained 20494
Diana 20493
Eagles 20492
##pi 20491
2000s 20490
documented 20489
##bel 20488
Cassie 20487
delay 20486
kisses 20485
##ines 20484
variation 20483
##ag 20482
growled 20481
##mark 20480
##ways 20479
Leslie 20478
studios 20477
Friedrich 20476
aunt 20475
actively 20474
armor 20473
eaten 20472
historically 20471
Better 20470
purse 20469
honey 20468
ratings 20467
##ée 20466
naturally 20465
1840 20464
peer 20463
Kenny 20462
Cardinal 20461
database 20460
Looking 20459
runners 20458
handsome 20457
Double 20456
PA 20455
##boat 20454
##sted 20453
protecting 20452
##jan 20451
Diamond 20450
concepts 20449
interface 20448
##aki 20447
Watch 20446
Article 20445
Columbus 20444
dialogue 20443
pause 20442
##rio 20441
extends 20440
blanket 20439
pulse 20438
1853 20437
affiliate 20436
ladies 20435
Ronald 20434
counted 20433
kills 20432
demons 20431
##zation 20430
Airlines 20429
Marco 20428
Cat 20427
companion 20426
mere 20425
Yugoslavia 20424
Forum 20423
Allan 20422
pioneer 20421
Competition 20420
Methodist 20419
patent 20418
nobody 20417
Stockholm 20416
##ien 20415
regulation 20414
##ois 20413
accomplished 20412
##itive 20411
washed 20410
sake 20409
Vladimir 20408
crops 20407
prestigious 20406
humor 20405
Sally 20404
labour 20403
tributary 20402
trap 20401
altered 20400
examined 20399
Mumbai 20398
bombing 20397
Ash 20396
noble 20395
suspension 20394
ruins 20393
##bank 20392
spare 20391
displays 20390
guided 20389
dimensional 20388
Iraqi 20387
##hon 20386
sciences 20385
Franz 20384
relating 20383
fence 20382
followers 20381
Palestine 20380
invented 20379
proceeded 20378
Batman 20377
Bradley 20376
##yard 20375
##ova 20374
crystal 20373
Kerala 20372
##ima 20371
shipping 20370
handled 20369
Want 20368
abolished 20367
Drew 20366
##tter 20365
Powell 20364
Half 20363
##table 20362
##cker 20361
exhibitions 20360
Were 20359
assignment 20358
assured 20357
##rine 20356
Indonesian 20355
Grammy 20354
acknowledged 20353
Kylie 20352
coaches 20351
structural 20350
clearing 20349
stationed 20348
Say 20347
Total 20346
Rail 20345
besides 20344
glow 20343
threats 20342
afford 20341
Tree 20340
Musical 20339
##pp 20338
elite 20337
centered 20336
explore 20335
Engineers 20334
Stakes 20333
Hello 20332
tourism 20331
severely 20330
assessment 20329
##tly 20328
crack 20327
politicians 20326
##rrow 20325
sheets 20324
volunteer 20323
##borough 20322
##hold 20321
announcement 20320
recover 20319
contribute 20318
lungs 20317
##ille 20316
mainland 20315
presentation 20314
Johann 20313
Writing 20312
1849 20311
##bird 20310
Study 20309
Boulevard 20308
coached 20307
fail 20306
airline 20305
Congo 20304
Plus 20303
Syrian 20302
introduce 20301
ridge 20300
Casey 20299
manages 20298
##fi 20297
searched 20296
Support 20295
succession 20294
progressive 20293
coup 20292
cultures 20291
##lessly 20290
sensation 20289
Cork 20288
Elena 20287
Sofia 20286
Philosophy 20285
mini 20284
trunk 20283
academy 20282
Mass 20281
Liz 20280
practiced 20279
Reid 20278
##ule 20277
satisfied 20276
experts 20275
Wilhelm 20274
Woods 20273
invitation 20272
Angels 20271
calendar 20270
joy 20269
Sr 20268
Dam 20267
packed 20266
##uan 20265
bastard 20264
Workers 20263
broadcasts 20262
logic 20261
cooking 20260
backward 20259
##ack 20258
Chen 20257
creates 20256
enzyme 20255
##xi 20254
Davies 20253
aviation 20252
VII 20251
Conservation 20250
fucking 20249
Knights 20248
##kan 20247
requiring 20246
hectares 20245
wars 20244
ate 20243
##box 20242
Mind 20241
desired 20240
oak 20239
absorbed 20238
Really 20237
Vietnamese 20236
Paulo 20235
athlete 20234
##car 20233
##eth 20232
Talk 20231
Wu 20230
##cks 20229
survivors 20228
Yang 20227
Joel 20226
Almost 20225
Holmes 20224
Armed 20223
Joshua 20222
priests 20221
discontinued 20220
##sey 20219
blond 20218
Rolling 20217
suggesting 20216
CA 20215
clay 20214
exterior 20213
Scientific 20212
##sive 20211
Giovanni 20210
Hi 20209
farther 20208
contents 20207
Winners 20206
animation 20205
neutral 20204
mall 20203
Notes 20202
layers 20201
professionals 20200
Armstrong 20199
Against 20198
Piano 20197
involve 20196
monitor 20195
angel 20194
parked 20193
bears 20192
seated 20191
feat 20190
beliefs 20189
##kers 20188
Version 20187
suffer 20186
##ceae 20185
guidance 20184
##eur 20183
honored 20182
raid 20181
alarm 20180
Glen 20179
Ellen 20178
Jamaica 20177
trio 20176
enabled 20175
##ils 20174
procedures 20173
##hus 20172
moderate 20171
upstairs 20170
##ses 20169
torture 20168
Georgian 20167
rebellion 20166
Fernando 20165
Nice 20164
##are 20163
Aires 20162
Campus 20161
beast 20160
##hing 20159
1847 20158
##FA 20157
Isle 20156
##logist 20155
Princeton 20154
cathedral 20153
Oakland 20152
Solomon 20151
##tto 20150
Milwaukee 20149
upcoming 20148
midfielder 20147
Neither 20146
sacred 20145
Eyes 20144
appreciate 20143
Brunswick 20142
secrets 20141
Rice 20140
Somerset 20139
Chancellor 20138
Curtis 20137
##gel 20136
Rich 20135
separation 20134
grid 20133
##los 20132
##bon 20131
urge 20130
##ees 20129
##ree 20128
freight 20127
towers 20126
psychology 20125
requirement 20124
dollar 20123
##fall 20122
##sman 20121
exile 20120
tomb 20119
Salt 20118
Stefan 20117
Buenos 20116
Revival 20115
Porter 20114
tender 20113
diesel 20112
chocolate 20111
Eugene 20110
Legion 20109
Laboratory 20108
sheep 20107
arched 20106
hospitals 20105
orbit 20104
Full 20103
##hall 20102
drinks 20101
ripped 20100
##RS 20099
tense 20098
Hank 20097
leagues 20096
##nberg 20095
PlayStation 20094
fool 20093
Punjab 20092
relatives 20091
Comedy 20090
sur 20089
1846 20088
Tonight 20087
Sox 20086
##if 20085
Rabbi 20084
org 20083
speaks 20082
institute 20081
defender 20080
painful 20079
wishes 20078
Weekly 20077
literacy 20076
portions 20075
snake 20074
item 20073
deals 20072
##tum 20071
autumn 20070
sharply 20069
reforms 20068
thighs 20067
prototype 20066
##ition 20065
argues 20064
disorder 20063
Physics 20062
terror 20061
provisions 20060
refugees 20059
predominantly 20058
independently 20057
march 20056
##graphy 20055
Arabia 20054
Andrews 20053
Bus 20052
Money 20051
drops 20050
##zar 20049
pistol 20048
matrix 20047
revolutionary 20046
##ust 20045
Starting 20044
##ptic 20043
Oak 20042
Monica 20041
##ides 20040
servants 20039
##hed 20038
archaeological 20037
divorced 20036
rocket 20035
enjoying 20034
fires 20033
##nel 20032
assembled 20031
qualification 20030
retiring 20029
##fied 20028
Distinguished 20027
handful 20026
infection 20025
Durham 20024
##itz 20023
fortune 20022
renewed 20021
Chelsea 20020
##sley 20019
curved 20018
gesture 20017
retain 20016
exhausted 20015
##ifying 20014
Perth 20013
jumping 20012
Palestinian 20011
Simpson 20010
colonies 20009
steal 20008
##chy 20007
corners 20006
Finn 20005
arguing 20004
Martha 20003
##var 20002
Betty 20001
emerging 20000
Heights 19999
Hindi 19998
Manila 19997
pianist 19996
founders 19995
regret 19994
Napoleon 19993
elbow 19992
overhead 19991
bold 19990
praise 19989
humanity 19988
##ori 19987
Revolutionary 19986
##ere 19985
fur 19984
##ole 19983
Ashley 19982
Official 19981
##rm 19980
lovely 19979
Architecture 19978
##sch 19977
Baronet 19976
virtually 19975
##OS 19974
descended 19973
immigration 19972
##das 19971
##kes 19970
Holly 19969
Wednesday 19968
maintains 19967
theatrical 19966
Evan 19965
Gardens 19964
citing 19963
##gia 19962
segments 19961
Bailey 19960
Ghost 19959
##city 19958
governing 19957
graphics 19956
##ined 19955
privately 19954
potentially 19953
transformation 19952
Crystal 19951
Cabinet 19950
sacrifice 19949
hesitated 19948
mud 19947
Apollo 19946
Desert 19945
bin 19944
victories 19943
Editor 19942
Railways 19941
Web 19940
Case 19939
tourists 19938
Brussels 19937
Franco 19936
compiled 19935
topped 19934
Gene 19933
engineers 19932
commentary 19931
egg 19930
escort 19929
nerve 19928
arch 19927
necessarily 19926
frustration 19925
Michelle 19924
democracy 19923
genes 19922
Facebook 19921
halfway 19920
##ient 19919
102 19918
flipped 19917
Won 19916
##mit 19915
NASA 19914
Lynn 19913
Provincial 19912
ambassador 19911
Inspector 19910
glared 19909
Change 19908
McDonald 19907
developments 19906
tucked 19905
noting 19904
Gibson 19903
circulation 19902
dubbed 19901
armies 19900
resource 19899
Headquarters 19898
##iest 19897
Mia 19896
Albanian 19895
Oil 19894
Albums 19893
excuse 19892
intervention 19891
Grande 19890
Hugo 19889
integration 19888
civilians 19887
depends 19886
reserves 19885
Dee 19884
compositions 19883
identification 19882
restrictions 19881
quarterback 19880
Miranda 19879
Universe 19878
favourite 19877
ranges 19876
hint 19875
loyal 19874
Op 19873
entity 19872
Manual 19871
quoted 19870
dealt 19869
specialist 19868
Zhang 19867
download 19866
Westminster 19865
Rebecca 19864
streams 19863
Anglican 19862
variations 19861
Mine 19860
detective 19859
Films 19858
reserved 19857
##oke 19856
##key 19855
sailing 19854
##gger 19853
expanding 19852
recall 19851
discovers 19850
particles 19849
behaviour 19848
Gavin 19847
blank 19846
permit 19845
Java 19844
Fraser 19843
Pass 19842
##non 19841
##TA 19840
panels 19839
statistics 19838
notion 19837
courage 19836
dare 19835
venues 19834
##roy 19833
Box 19832
Newport 19831
travelling 19830
Thursday 19829
warriors 19828
Glenn 19827
criteria 19826
360 19825
mutual 19824
restore 19823
varied 19822
bitter 19821
Katherine 19820
##lant 19819
ritual 19818
bits 19817
##à 19816
Henderson 19815
trips 19814
Richardson 19813
Detective 19812
curse 19811
psychological 19810
Il 19809
midnight 19808
streak 19807
facts 19806
Dawn 19805
Indies 19804
Edmund 19803
roster 19802
Gen 19801
##nation 19800
1830 19799
congregation 19798
shaft 19797
##ically 19796
##mination 19795
Indianapolis 19794
Sussex 19793
loving 19792
##bit 19791
sounding 19790
horrible 19789
Continental 19788
Griffin 19787
advised 19786
magical 19785
millions 19784
##date 19783
1845 19782
Safety 19781
lifting 19780
determination 19779
valid 19778
dialect 19777
Penn 19776
Know 19775
triple 19774
avoided 19773
dancer 19772
judgment 19771
sixty 19770
farmer 19769
lakes 19768
blast 19767
aggressive 19766
Abby 19765
tag 19764
chains 19763
inscription 19762
##nn 19761
conducting 19760
Scout 19759
buying 19758
##wich 19757
spreading 19756
##OC 19755
array 19754
hurried 19753
Environment 19752
improving 19751
prompted 19750
fierce 19749
Taking 19748
Away 19747
tune 19746
pissed 19745
Bull 19744
catching 19743
##ying 19742
eyebrow 19741
metropolitan 19740
terrain 19739
##rel 19738
Lodge 19737
manufacturers 19736
creator 19735
##etic 19734
happiness 19733
ports 19732
##ners 19731
Relations 19730
fortress 19729
targeted 19728
##ST 19727
allegedly 19726
blues 19725
##osa 19724
Bosnia 19723
##dom 19722
burial 19721
similarly 19720
stranger 19719
pursued 19718
symbols 19717
rebels 19716
reflection 19715
routine 19714
traced 19713
indoor 19712
eventual 19711
##ska 19710
##ão 19709
##una 19708
MD 19707
##phone 19706
oh 19705
grants 19704
Reynolds 19703
rid 19702
operators 19701
##nus 19700
Joey 19699
vital 19698
siblings 19697
keyboard 19696
br 19695
removing 19694
societies 19693
drives 19692
solely 19691
princess 19690
lighter 19689
Various 19688
Cavalry 19687
believing 19686
SC 19685
underwent 19684
relay 19683
smelled 19682
syndrome 19681
welfare 19680
authorized 19679
seemingly 19678
Hard 19677
chicken 19676
##rina 19675
Ages 19674
Bo 19673
democratic 19672
barn 19671
Eye 19670
shorts 19669
##coming 19668
##hand 19667
disappointed 19666
unexpected 19665
centres 19664
Exhibition 19663
Stories 19662
Site 19661
banking 19660
accidentally 19659
Agent 19658
conjunction 19657
André 19656
Chloe 19655
resist 19654
width 19653
Queens 19652
provision 19651
##art 19650
Melissa 19649
Honorary 19648
Del 19647
prefer 19646
abruptly 19645
duration 19644
##vis 19643
Glass 19642
enlisted 19641
##ado 19640
discipline 19639
Sisters 19638
carriage 19637
##ctor 19636
##sburg 19635
Lancashire 19634
log 19633
fuck 19632
##iz 19631
closet 19630
collecting 19629
holy 19628
rape 19627
trusted 19626
cleaning 19625
inhabited 19624
Rocky 19623
104 19622
editorial 19621
##yu 19620
##ju 19619
succeed 19618
strict 19617
Cuban 19616
##iya 19615
Bronze 19614
outcome 19613
##ifies 19612
##set 19611
corps 19610
Hero 19609
barrier 19608
Kumar 19607
groaned 19606
Nina 19605
Burton 19604
enable 19603
stability 19602
Milton 19601
knots 19600
##ination 19599
slavery 19598
##borg 19597
curriculum 19596
trailer 19595
warfare 19594
Dante 19593
Edgar 19592
revival 19591
Copenhagen 19590
define 19589
advocate 19588
Garrett 19587
Luther 19586
overcome 19585
pipe 19584
750 19583
construct 19582
Scotia 19581
kings 19580
flooding 19579
##hard 19578
Ferdinand 19577
Felix 19576
forgot 19575
Fish 19574
Kurt 19573
elaborate 19572
##BC 19571
graphic 19570
gripped 19569
colonel 19568
Sophia 19567
Advisory 19566
Self 19565
##uff 19564
##lio 19563
monitoring 19562
seal 19561
senses 19560
rises 19559
peaceful 19558
journals 19557
1837 19556
checking 19555
legendary 19554
Ghana 19553
##power 19552
ammunition 19551
Rosa 19550
Richards 19549
nineteenth 19548
ferry 19547
aggregate 19546
Troy 19545
inter 19544
##wall 19543
Triple 19542
steep 19541
tent 19540
Cyprus 19539
1844 19538
##woman 19537
commanding 19536
farms 19535
doi 19534
navy 19533
specified 19532
na 19531
cricketer 19530
transported 19529
Think 19528
comprising 19527
grateful 19526
solve 19525
##core 19524
beings 19523
clerk 19522
grain 19521
vector 19520
discrimination 19519
##TC 19518
Katie 19517
reasonable 19516
drawings 19515
veins 19514
consideration 19513
Monroe 19512
repeat 19511
breed 19510
dried 19509
witnessed 19508
ordained 19507
Current 19506
spirits 19505
remarkable 19504
consultant 19503
urged 19502
Remember 19501
anime 19500
singers 19499
phenomenon 19498
Rhode 19497
Carlo 19496
demanding 19495
findings 19494
manual 19493
varying 19492
Fellowship 19491
generate 19490
safely 19489
heated 19488
withdrawn 19487
##ao 19486
headquartered 19485
##zon 19484
##lav 19483
##ency 19482
Col 19481
Memphis 19480
imposed 19479
rivals 19478
Planet 19477
healing 19476
##hs 19475
ensemble 19474
Warriors 19473
##bone 19472
cult 19471
Frankfurt 19470
##HL 19469
diversity 19468
Gerald 19467
intermediate 19466
##izes 19465
reactions 19464
Sister 19463
##ously 19462
##lica 19461
quantum 19460
awkward 19459
mentions 19458
pursuit 19457
##ography 19456
varies 19455
profession 19454
molecular 19453
consequence 19452
lectures 19451
cracked 19450
103 19449
slowed 19448
##tsu 19447
cheese 19446
upgraded 19445
suite 19444
substance 19443
Kingston 19442
1800 19441
Idaho 19440
Theory 19439
##een 19438
ain 19437
Carson 19436
Molly 19435
##OR 19434
configuration 19433
Whitney 19432
reads 19431
audiences 19430
##tie 19429
Geneva 19428
Outside 19427
##nen 19426
##had 19425
transit 19424
volleyball 19423
Randy 19422
Chad 19421
rubber 19420
motorcycle 19419
respected 19418
eager 19417
Level 19416
coin 19415
##lets 19414
neighbouring 19413
##wski 19412
confident 19411
##cious 19410
poll 19409
uncertain 19408
punch 19407
thesis 19406
Tucker 19405
IATA 19404
Alec 19403
##ographic 19402
##law 19401
1841 19400
desperately 19399
1812 19398
Lithuania 19397
accent 19396
Cox 19395
lightning 19394
skirt 19393
##load 19392
Burns 19391
Dynasty 19390
##ug 19389
chapters 19388
Working 19387
dense 19386
Morocco 19385
##kins 19384
casting 19383
Set 19382
activated 19381
oral 19380
Brien 19379
horn 19378
HIV 19377
dawn 19376
stumbled 19375
altar 19374
tore 19373
considerably 19372
Nicole 19371
interchange 19370
registration 19369
biography 19368
Hull 19367
Stan 19366
bulk 19365
consent 19364
Pierce 19363
##ER 19362
Fifth 19361
marched 19360
terrorist 19359
##piece 19358
##itt 19357
Presidential 19356
Heather 19355
staged 19354
Plant 19353
relegation 19352
sporting 19351
joins 19350
##ced 19349
Pakistani 19348
dynamic 19347
Heat 19346
##lf 19345
ourselves 19344
Except 19343
Elliott 19342
nationally 19341
goddess 19340
investors 19339
Burke 19338
Jackie 19337
##ā 19336
##RA 19335
Tristan 19334
Associate 19333
Tuesday 19332
scope 19331
Near 19330
bunch 19329
##abad 19328
##ben 19327
sunlight 19326
##aire 19325
manga 19324
Willie 19323
trucks 19322
boarding 19321
Lion 19320
lawsuit 19319
Learning 19318
Der 19317
pounding 19316
awful 19315
##mine 19314
IT 19313
Legend 19312
romance 19311
Serie 19310
AC 19309
gut 19308
precious 19307
Robertson 19306
hometown 19305
realm 19304
Guards 19303
Tag 19302
batting 19301
##vre 19300
halt 19299
conscious 19298
1838 19297
acquire 19296
collar 19295
##gg 19294
##ops 19293
Herald 19292
nationwide 19291
citizenship 19290
Aircraft 19289
decrease 19288
em 19287
Fiction 19286
Female 19285
corporation 19284
Located 19283
##ip 19282
fights 19281
unconscious 19280
Tampa 19279
Poetry 19278
lobby 19277
Malta 19276
##sar 19275
##bie 19274
layout 19273
Tate 19272
reader 19271
stained 19270
##bre 19269
##rst 19268
##ulate 19267
loudly 19266
Eva 19265
Cohen 19264
exploded 19263
Merit 19262
Maya 19261
##rable 19260
Rovers 19259
##IC 19258
Morrison 19257
Should 19256
vinyl 19255
##mie 19254
onwards 19253
##gie 19252
vicinity 19251
Wildlife 19250
probability 19249
Mar 19248
Barnes 19247
##ook 19246
spinning 19245
Moses 19244
##vie 19243
Surrey 19242
Planning 19241
conferences 19240
protective 19239
Plaza 19238
deny 19237
Canterbury 19236
manor 19235
Estate 19234
tilted 19233
comics 19232
IBM 19231
destroying 19230
server 19229
Dorothy 19228
##horn 19227
Oslo 19226
lesser 19225
heaven 19224
Marshal 19223
scales 19222
strikes 19221
##ath 19220
firms 19219
attract 19218
##BS 19217
controlling 19216
Bradford 19215
southeastern 19214
Amazon 19213
Travis 19212
Janet 19211
governed 19210
1842 19209
Train 19208
Holden 19207
bleeding 19206
gifts 19205
rent 19204
1839 19203
palms 19202
##ū 19201
judicial 19200
Ho 19199
Finals 19198
conflicts 19197
unlikely 19196
draws 19195
##cies 19194
compensation 19193
adds 19192
elderly 19191
Anton 19190
lasting 19189
Nintendo 19188
codes 19187
ministers 19186
pot 19185
associations 19184
capabilities 19183
##cht 19182
libraries 19181
##sie 19180
chances 19179
performers 19178
runway 19177
##af 19176
##nder 19175
Mid 19174
Vocals 19173
##uch 19172
##eon 19171
interpreted 19170
priority 19169
Uganda 19168
ruined 19167
Mathematics 19166
cook 19165
AFL 19164
Lutheran 19163
AIDS 19162
Capitol 19161
chase 19160
axis 19159
Moreover 19158
María 19157
Saxon 19156
storyline 19155
##ffed 19154
Tears 19153
Kid 19152
cent 19151
colours 19150
Sex 19149
##long 19148
pm 19147
blonde 19146
Edwin 19145
CE 19144
diocese 19143
##ents 19142
##boy 19141
Inn 19140
##ller 19139
Saskatchewan 19138
##kh 19137
stepping 19136
Windsor 19135
##oka 19134
##eri 19133
Xavier 19132
Resources 19131
1843 19130
##top 19129
##rad 19128
##lls 19127
Testament 19126
poorly 19125
1836 19124
drifted 19123
slope 19122
CIA 19121
remix 19120
Lords 19119
mature 19118
hosting 19117
diamond 19116
beds 19115
##ncies 19114
luxury 19113
trigger 19112
##lier 19111
preliminary 19110
hybrid 19109
journalists 19108
Enterprise 19107
proven 19106
expelled 19105
insects 19104
Beautiful 19103
lifestyle 19102
vanished 19101
##ake 19100
##ander 19099
matching 19098
surfaces 19097
Dominican 19096
Kids 19095
referendum 19094
Orlando 19093
Truth 19092
Sandy 19091
privacy 19090
Calgary 19089
Speaker 19088
sts 19087
Nobody 19086
shifting 19085
##gers 19084
Roll 19083
Armenia 19082
Hand 19081
##ES 19080
106 19079
##ont 19078
Guild 19077
larvae 19076
Stock 19075
flame 19074
gravity 19073
enhanced 19072
Marion 19071
surely 19070
##tering 19069
Tales 19068
algorithm 19067
Emmy 19066
darker 19065
VIII 19064
##lash 19063
hamlet 19062
deliberately 19061
occurring 19060
choices 19059
Gage 19058
fees 19057
settling 19056
ridiculous 19055
##ela 19054
Sons 19053
cop 19052
custody 19051
##ID 19050
proclaimed 19049
Cardinals 19048
##pm 19047
Metal 19046
Ana 19045
1835 19044
clue 19043
Cardiff 19042
riders 19041
observations 19040
MA 19039
sometime 19038
##och 19037
performer 19036
intact 19035
Points 19034
allegations 19033
rotation 19032
Tennis 19031
tenor 19030
Directors 19029
##ats 19028
Transit 19027
thigh 19026
Complex 19025
##works 19024
twentieth 19023
Factory 19022
doctrine 19021
Daddy 19020
##ished 19019
pretend 19018
Winston 19017
cigarette 19016
##IA 19015
specimens 19014
hydrogen 19013
smoking 19012
mathematical 19011
arguments 19010
openly 19009
developer 19008
##iro 19007
fists 19006
somebody 19005
##san 19004
Standing 19003
Caleb 19002
intelligent 19001
Stay 19000
Interior 18999
echoed 18998
Valentine 18997
varieties 18996
Brady 18995
cluster 18994
Ever 18993
voyage 18992
##of 18991
deposits 18990
ultimate 18989
Hayes 18988
horizontal 18987
proximity 18986
##ás 18985
estates 18984
exploration 18983
NATO 18982
Classical 18981
##most 18980
bills 18979
condemned 18978
1832 18977
hunger 18976
##ato 18975
planes 18974
deserve 18973
offense 18972
sequences 18971
rendered 18970
acceptance 18969
##ony 18968
manufacture 18967
Plymouth 18966
innovative 18965
predicted 18964
##RC 18963
Fantasy 18962
##une 18961
supporter 18960
absent 18959
Picture 18958
bassist 18957
rescued 18956
##MC 18955
Ahmed 18954
Monte 18953
##sts 18952
##rius 18951
insane 18950
novelist 18949
##és 18948
agrees 18947
Antarctic 18946
Lancaster 18945
Hopkins 18944
calculated 18943
startled 18942
##star 18941
tribal 18940
Amendment 18939
##hoe 18938
invisible 18937
patron 18936
deer 18935
Walk 18934
tracking 18933
Lyon 18932
tickets 18931
##ED 18930
philosopher 18929
compounds 18928
chuckled 18927
##wi 18926
pound 18925
loyalty 18924
Academic 18923
petition 18922
refuses 18921
marking 18920
Mercury 18919
northeastern 18918
dimensions 18917
scandal 18916
Canyon 18915
patch 18914
publish 18913
##oning 18912
Peak 18911
minds 18910
##boro 18909
Presbyterian 18908
Hardy 18907
theoretical 18906
magnitude 18905
bombs 18904
cage 18903
##ders 18902
##kai 18901
measuring 18900
explaining 18899
avoiding 18898
touchdowns 18897
Card 18896
theology 18895
##ured 18894
Popular 18893
export 18892
suspicious 18891
Probably 18890
photograph 18889
Lou 18888
Parks 18887
Arms 18886
compact 18885
Apparently 18884
excess 18883
Banks 18882
lied 18881
stunned 18880
territorial 18879
Filipino 18878
spectrum 18877
learns 18876
wash 18875
imprisonment 18874
ugly 18873
##rose 18872
Albany 18871
Erik 18870
sends 18869
##hara 18868
##rid 18867
consumed 18866
##gling 18865
Belgrade 18864
Da 18863
opposing 18862
Magnus 18861
footsteps 18860
glowing 18859
delicate 18858
Alexandria 18857
Ludwig 18856
gorgeous 18855
Bros 18854
Index 18853
##PA 18852
customs 18851
preservation 18850
bonds 18849
##mond 18848
environments 18847
##nto 18846
instructed 18845
parted 18844
adoption 18843
locality 18842
workshops 18841
goalkeeper 18840
##rik 18839
##uma 18838
Brighton 18837
Slovenia 18836
##ulating 18835
##tical 18834
towel 18833
hugged 18832
stripped 18831
Bears 18830
upright 18829
Wagner 18828
##aux 18827
secretly 18826
Adventures 18825
nest 18824
Course 18823
Lauren 18822
Boeing 18821
Abdul 18820
Lakes 18819
450 18818
##cu 18817
USSR 18816
caps 18815
Chan 18814
##nna 18813
conceived 18812
Actually 18811
Belfast 18810
Lithuanian 18809
concentrate 18808
possess 18807
militia 18806
pine 18805
protagonist 18804
Helena 18803
##PS 18802
##band 18801
Belle 18800
Clara 18799
Reform 18798
currency 18797
pregnancy 18796
1500 18795
##rim 18794
Isabella 18793
hull 18792
Name 18791
trend 18790
journalism 18789
diet 18788
##mel 18787
Recording 18786
acclaimed 18785
Tang 18784
Jace 18783
steering 18782
vacant 18781
suggestion 18780
costume 18779
laser 18778
##š 18777
##ink 18776
##pan 18775
##vić 18774
integral 18773
achievements 18772
wise 18771
classroom 18770
unions 18769
southwestern 18768
##uer 18767
Garcia 18766
toss 18765
Tara 18764
Large 18763
##tate 18762
evident 18761
responsibilities 18760
populated 18759
satisfaction 18758
##bia 18757
casual 18756
Ecuador 18755
##ght 18754
arose 18753
##ović 18752
Cornwall 18751
embrace 18750
refuse 18749
Heavyweight 18748
XI 18747
Eden 18746
activists 18745
##uation 18744
biology 18743
##shan 18742
fraud 18741
Fuck 18740
matched 18739
legacy 18738
Rivers 18737
missionary 18736
extraordinary 18735
Didn 18734
holder 18733
wickets 18732
crucial 18731
Writers 18730
Hurricane 18729
Iceland 18728
gross 18727
trumpet 18726
accordance 18725
hurry 18724
flooded 18723
doctorate 18722
Albania 18721
##yi 18720
united 18719
deceased 18718
jealous 18717
grief 18716
flute 18715
portraits 18714
##а 18713
pleasant 18712
Founded 18711
Face 18710
crowned 18709
Raja 18708
advisor 18707
Salem 18706
##ec 18705
Achievement 18704
admission 18703
freely 18702
minimal 18701
Sudan 18700
developers 18699
estimate 18698
disabled 18697
##lane 18696
downstairs 18695
Bruno 18694
##pus 18693
pinyin 18692
##ude 18691
lecture 18690
deadly 18689
underlying 18688
optical 18687
witnesses 18686
Combat 18685
Julius 18684
tapped 18683
variants 18682
##like 18681
Colonial 18680
Critics 18679
Similarly 18678
mouse 18677
voltage 18676
sculptor 18675
Concert 18674
salary 18673
Frances 18672
##ground 18671
hook 18670
premises 18669
Software 18668
instructor 18667
nominee 18666
##ited 18665
fog 18664
slopes 18663
##zu 18662
vegetation 18661
sail 18660
##rch 18659
Body 18658
Apart 18657
atop 18656
View 18655
utility 18654
ribs 18653
cab 18652
migration 18651
##wyn 18650
bounded 18649
2019 18648
pillow 18647
trails 18646
##ub 18645
Halifax 18644
shade 18643
Rush 18642
##lah 18641
##dian 18640
Notre 18639
interviewed 18638
Alexandra 18637
Springfield 18636
Indeed 18635
rubbing 18634
dozens 18633
amusement 18632
legally 18631
##lers 18630
Jill 18629
Cinema 18628
ignoring 18627
Choice 18626
##ures 18625
pockets 18624
##nell 18623
laying 18622
Blair 18621
tackles 18620
separately 18619
##teen 18618
Criminal 18617
performs 18616
theorem 18615
Communication 18614
suburbs 18613
##iel 18612
competitors 18611
rows 18610
##hai 18609
Manitoba 18608
Eleanor 18607
interactions 18606
nominations 18605
assassination 18604
##dis 18603
Edmonton 18602
diving 18601
##dine 18600
essay 18599
##tas 18598
AFC 18597
Edge 18596
directing 18595
imagination 18594
sunk 18593
implement 18592
Theodore 18591
trembling 18590
sealed 18589
##rock 18588
Nobel 18587
##ancy 18586
##dorf 18585
##chen 18584
genuine 18583
apartments 18582
Nicolas 18581
AA 18580
Bach 18579
Globe 18578
Store 18577
220 18576
##10 18575
Rochester 18574
##ño 18573
alert 18572
107 18571
Beck 18570
##nin 18569
Naples 18568
Basin 18567
Crawford 18566
fears 18565
Tracy 18564
##hen 18563
disk 18562
##pped 18561
seventeen 18560
Lead 18559
backup 18558
reconstruction 18557
##lines 18556
terrified 18555
sleeve 18554
nicknamed 18553
popped 18552
##making 18551
##ern 18550
Holiday 18549
Gospel 18548
ibn 18547
##ime 18546
convert 18545
divine 18544
resolved 18543
##quet 18542
ski 18541
realizing 18540
##RT 18539
Legislature 18538
reservoir 18537
Rain 18536
sinking 18535
rainfall 18534
elimination 18533
challenging 18532
tobacco 18531
##outs 18530
Given 18529
smallest 18528
Commercial 18527
pin 18526
rebel 18525
comedian 18524
exchanged 18523
airing 18522
dish 18521
Salvador 18520
promising 18519
##wl 18518
relax 18517
presenter 18516
toll 18515
aerial 18514
##eh 18513
Fletcher 18512
brass 18511
disappear 18510
zones 18509
adjusted 18508
contacts 18507
##lk 18506
sensed 18505
Walt 18504
mild 18503
toes 18502
flies 18501
shame 18500
considers 18499
wildlife 18498
Hanna 18497
Arsenal 18496
Ladies 18495
naming 18494
##ishing 18493
anxiety 18492
discussions 18491
cute 18490
undertaken 18489
Cash 18488
strain 18487
Wyoming 18486
dishes 18485
precise 18484
Angela 18483
##ided 18482
hostile 18481
twins 18480
115 18479
Built 18478
##pel 18477
Online 18476
tactics 18475
Newman 18474
##bourne 18473
unclear 18472
repairs 18471
embarrassed 18470
listing 18469
tugged 18468
Vale 18467
##gin 18466
Meredith 18465
bout 18464
##cle 18463
velocity 18462
tips 18461
froze 18460
evaluation 18459
demonstrate 18458
##card 18457
criticised 18456
Nash 18455
lineup 18454
Rao 18453
monks 18452
bacteria 18451
lease 18450
##lish 18449
frightened 18448
den 18447
revived 18446
finale 18445
##rance 18444
flee 18443
Letters 18442
decreased 18441
##oh 18440
Sounds 18439
wrap 18438
Sharon 18437
incidents 18436
renovated 18435
everybody 18434
stole 18433
Bath 18432
boxing 18431
1815 18430
withdraw 18429
backs 18428
interim 18427
react 18426
murders 18425
Rhodes 18424
Copa 18423
framed 18422
flown 18421
Estonia 18420
Heavy 18419
explored 18418
##rra 18417
##GA 18416
##ali 18415
Istanbul 18414
1834 18413
##rite 18412
##aging 18411
##ues 18410
Episcopal 18409
arc 18408
orientation 18407
Maxwell 18406
infected 18405
##rot 18404
BCE 18403
Brook 18402
grasp 18401
Roberto 18400
Excellence 18399
108 18398
withdrawal 18397
Marines 18396
rider 18395
Lo 18394
##sin 18393
##run 18392
Subsequently 18391
garrison 18390
hurricane 18389
facade 18388
Prussia 18387
crushed 18386
enterprise 18385
##mber 18384
Twitter 18383
Generation 18382
Physical 18381
Sugar 18380
editing 18379
communicate 18378
Ellie 18377
##hurst 18376
Ernst 18375
wagon 18374
promotional 18373
conquest 18372
Parliamentary 18371
courtyard 18370
lawyers 18369
Superman 18368
email 18367
Prussian 18366
lately 18365
lecturer 18364
Singer 18363
Majesty 18362
Paradise 18361
sooner 18360
Heath 18359
slot 18358
curves 18357
convoy 18356
##vian 18355
induced 18354
synonym 18353
breeze 18352
##plane 18351
##ox 18350
peered 18349
Coalition 18348
##hia 18347
odds 18346
##esh 18345
##lina 18344
Tomorrow 18343
Nadu 18342
##ico 18341
##rah 18340
damp 18339
autonomous 18338
console 18337
Victory 18336
counts 18335
Luxembourg 18334
intimate 18333
Archived 18332
Carroll 18331
spy 18330
Zero 18329
habit 18328
Always 18327
faction 18326
teenager 18325
Johnston 18324
chaos 18323
ruin 18322
commerce 18321
blog 18320
##shed 18319
##the 18318
reliable 18317
Word 18316
Yu 18315
Norton 18314
parade 18313
Catholics 18312
damned 18311
##iling 18310
surgeon 18309
##tia 18308
Allison 18307
Jonas 18306
remarked 18305
##ès 18304
idiot 18303
Making 18302
proposals 18301
Industries 18300
strategies 18299
artifacts 18298
batteries 18297
reward 18296
##vers 18295
Agricultural 18294
distinguish 18293
lengths 18292
Jeffrey 18291
Progressive 18290
kicking 18289
Patricia 18288
##gio 18287
ballot 18286
##ios 18285
skilled 18284
##gation 18283
Colt 18282
limestone 18281
##AS 18280
peninsula 18279
##itis 18278
LA 18277
hotels 18276
shapes 18275
Crime 18274
depicting 18273
northwestern 18272
HD 18271
silly 18270
Das 18269
##² 18268
##ws 18267
##ash 18266
##matic 18265
thermal 18264
Has 18263
forgive 18262
surrendered 18261
Palm 18260
Nacional 18259
drank 18258
haired 18257
Mercedes 18256
##foot 18255
loading 18254
Timothy 18253
##roll 18252
mechanisms 18251
traces 18250
digging 18249
discussing 18248
Natalie 18247
##zhou 18246
Forbes 18245
landmark 18244
Anyway 18243
Manor 18242
conspiracy 18241
gym 18240
knocking 18239
viewing 18238
Formation 18237
Pink 18236
Beauty 18235
limbs 18234
Phillip 18233
sponsor 18232
Joy 18231
granite 18230
Harbour 18229
##ero 18228
payments 18227
Ballet 18226
conviction 18225
##dam 18224
Hood 18223
estimates 18222
lacked 18221
Mad 18220
Jorge 18219
##wen 18218
refuge 18217
##LA 18216
invaded 18215
Kat 18214
suburban 18213
##fold 18212
investigated 18211
Ari 18210
complained 18209
creek 18208
Georges 18207
##uts 18206
powder 18205
accepting 18204
deserved 18203
carpet 18202
Thunder 18201
molecules 18200
Legal 18199
cliff 18198
strictly 18197
enrollment 18196
ranch 18195
##rg 18194
##mba 18193
proportion 18192
renovation 18191
crop 18190
grabbing 18189
##liga 18188
finest 18187
entries 18186
receptor 18185
helmet 18184
blown 18183
Listen 18182
flagship 18181
workshop 18180
resolve 18179
nails 18178
Shannon 18177
portal 18176
jointly 18175
shining 18174
Violet 18173
overwhelming 18172
upward 18171
Mick 18170
proceedings 18169
##dies 18168
##aring 18167
Laurence 18166
Churchill 18165
##rice 18164
commit 18163
170 18162
inclusion 18161
Examples 18160
##verse 18159
##rma 18158
fury 18157
paths 18156
##SC 18155
ankle 18154
nerves 18153
Chemistry 18152
rectangular 18151
sworn 18150
screenplay 18149
cake 18148
Mann 18147
Seoul 18146
Animal 18145
sizes 18144
Speed 18143
vol 18142
Population 18141
Southwest 18140
Hold 18139
continuously 18138
Qualified 18137
wishing 18136
Fighting 18135
Made 18134
disappointment 18133
Portsmouth 18132
Thirty 18131
##beck 18130
Ahmad 18129
teammate 18128
MLB 18127
graph 18126
Charleston 18125
realizes 18124
##dium 18123
exhibits 18122
preventing 18121
##int 18120
fever 18119
rivalry 18118
Male 18117
mentally 18116
dull 18115
##lor 18114
##rich 18113
consistently 18112
##igan 18111
Madame 18110
certificate 18109
suited 18108
Krishna 18107
accuracy 18106
Webb 18105
Budapest 18104
Rex 18103
1831 18102
Cornell 18101
OK 18100
surveillance 18099
##gated 18098
habitats 18097
Adventure 18096
Conrad 18095
Superior 18094
Gay 18093
sofa 18092
aka 18091
boot 18090
Statistics 18089
Jessie 18088
Liberation 18087
##lip 18086
##rier 18085
brands 18084
saint 18083
Heinrich 18082
Christine 18081
bath 18080
Rhine 18079
ballet 18078
Jin 18077
consensus 18076
chess 18075
Arctic 18074
stack 18073
furious 18072
cheap 18071
toy 18070
##yre 18069
##face 18068
##gging 18067
gastropod 18066
##nne 18065
Romans 18064
membrane 18063
answering 18062
25th 18061
architects 18060
sustainable 18059
##yne 18058
Hon 18057
1814 18056
Baldwin 18055
dome 18054
##awa 18053
##zen 18052
celebrity 18051
enclosed 18050
##uit 18049
##mmer 18048
Electronic 18047
locals 18046
##CE 18045
supervision 18044
mineral 18043
Chemical 18042
Slovakia 18041
alley 18040
hub 18039
##az 18038
heroes 18037
Creative 18036
##AM 18035
incredible 18034
politically 18033
ESPN 18032
yanked 18031
halls 18030
Aboriginal 18029
Greatest 18028
yield 18027
##20 18026
congressional 18025
robot 18024
Kiss 18023
welcomed 18022
MS 18021
speeds 18020
proceed 18019
Sherman 18018
eased 18017
Greene 18016
Walsh 18015
Geoffrey 18014
variables 18013
rocky 18012
##print 18011
acclaim 18010
Reverend 18009
Wonder 18008
tonnes 18007
recurring 18006
Dawson 18005
continent 18004
finite 18003
AP 18002
continental 18001
ID 18000
facilitate 17999
essays 17998
Rafael 17997
Neal 17996
1833 17995
ancestors 17994
##met 17993
##gic 17992
Especially 17991
teenage 17990
frustrated 17989
Jules 17988
cock 17987
expense 17986
##oli 17985
##old 17984
blocking 17983
Notable 17982
prohibited 17981
ca 17980
dock 17979
organize 17978
##wald 17977
Burma 17976
Gloria 17975
dimension 17974
aftermath 17973
choosing 17972
Mickey 17971
torpedo 17970
pub 17969
##used 17968
manuscripts 17967
laps 17966
Ulster 17965
staircase 17964
sphere 17963
Insurance 17962
Contest 17961
lens 17960
risks 17959
investigations 17958
ERA 17957
glare 17956
##play 17955
Graduate 17954
auction 17953
Chronicle 17952
##tric 17951
##50 17950
Coming 17949
seating 17948
Wade 17947
seeks 17946
inland 17945
Thames 17944
Rather 17943
butterfly 17942
contracted 17941
positioned 17940
consumers 17939
contestants 17938
fragments 17937
Yankees 17936
Santos 17935
administrator 17934
hypothesis 17933
retire 17932
Denis 17931
agreements 17930
Winnipeg 17929
##rill 17928
1820 17927
trophy 17926
crap 17925
shakes 17924
Jenkins 17923
##rium 17922
ya 17921
twist 17920
labels 17919
Maritime 17918
##lings 17917
##iv 17916
111 17915
##ensis 17914
Cairo 17913
Anything 17912
##fort 17911
opinions 17910
crowded 17909
##nian 17908
abandon 17907
##iff 17906
drained 17905
imported 17904
##rr 17903
tended 17902
##rain 17901
Going 17900
introducing 17899
sculptures 17898
bankruptcy 17897
danced 17896
demonstration 17895
stance 17894
settings 17893
gazed 17892
abstract 17891
pet 17890
Calvin 17889
stiff 17888
strongest 17887
wrestler 17886
##dre 17885
Republicans 17884
grace 17883
allocated 17882
cursed 17881
snail 17880
advancing 17879
Return 17878
errors 17877
Mall 17876
presenting 17875
eliminate 17874
Amateur 17873
Institution 17872
counting 17871
##wind 17870
warehouse 17869
##nde 17868
Ethiopia 17867
trailed 17866
hollow 17865
##press 17864
Literary 17863
capability 17862
nursing 17861
preceding 17860
lamp 17859
Thomson 17858
Morton 17857
##ctic 17856
Crew 17855
Close 17854
composers 17853
boom 17852
Clare 17851
missiles 17850
112 17849
hunter 17848
snap 17847
##oni 17846
##tail 17845
Us 17844
declaration 17843
##cock 17842
rally 17841
huh 17840
lion 17839
straightened 17838
Philippe 17837
Sutton 17836
alpha 17835
valued 17834
maker 17833
navigation 17832
detected 17831
favorable 17830
perception 17829
Charter 17828
##ña 17827
Ricky 17826
rebounds 17825
tunnels 17824
slapped 17823
Emergency 17822
supposedly 17821
##act 17820
deployment 17819
socialist 17818
tubes 17817
anybody 17816
corn 17815
##NA 17814
Seminary 17813
heating 17812
pump 17811
##AA 17810
achieving 17809
souls 17808
##ass 17807
Link 17806
##ele 17805
##smith 17804
greeted 17803
Bates 17802
Americas 17801
Elder 17800
cure 17799
contestant 17798
240 17797
fold 17796
Runner 17795
Uh 17794
licked 17793
Politics 17792
committees 17791
neighbors 17790
fairy 17789
Silva 17788
Leipzig 17787
tipped 17786
correctly 17785
exciting 17784
electronics 17783
foundations 17782
cottage 17781
governmental 17780
##hat 17779
allied 17778
claws 17777
presidency 17776
cruel 17775
Agreement 17774
slender 17773
accompanying 17772
precisely 17771
##pass 17770
driveway 17769
swim 17768
Stand 17767
crews 17766
##mission 17765
rely 17764
everyday 17763
Wings 17762
demo 17761
##hic 17760
recreational 17759
min 17758
nationality 17757
##duction 17756
Easter 17755
##hole 17754
canvas 17753
Kay 17752
Leicester 17751
talented 17750
Discovery 17749
shells 17748
##ech 17747
Kerry 17746
Ferguson 17745
Leave 17744
##place 17743
altogether 17742
adopt 17741
butt 17740
wolves 17739
##nsis 17738
##ania 17737
modest 17736
soprano 17735
Boris 17734
##ught 17733
electron 17732
depicts 17731
hid 17730
cruise 17729
differ 17728
treasure 17727
##nch 17726
Gun 17725
Mama 17724
Bengali 17723
trainer 17722
merchants 17721
innovation 17720
presumably 17719
Shirley 17718
bottles 17717
proceeds 17716
Fear 17715
invested 17714
Pirates 17713
particle 17712
Dominic 17711
blamed 17710
Fight 17709
Daisy 17708
##pper 17707
##graphic 17706
nods 17705
knight 17704
Doyle 17703
tales 17702
Carnegie 17701
Evil 17700
Inter 17699
Shore 17698
Nixon 17697
transform 17696
Savannah 17695
##gas 17694
Baltic 17693
stretching 17692
worlds 17691
protocol 17690
Percy 17689
Toby 17688
Heroes 17687
brave 17686
dancers 17685
##aria 17684
backwards 17683
responses 17682
Chi 17681
Gaelic 17680
Berry 17679
crush 17678
embarked 17677
promises 17676
Madonna 17675
researcher 17674
realised 17673
inaugurated 17672
Cherry 17671
Mikhail 17670
Nottingham 17669
reinforced 17668
subspecies 17667
rapper 17666
##kie 17665
Dreams 17664
Re 17663
Damon 17662
Minneapolis 17661
monsters 17660
suspicion 17659
Tel 17658
surroundings 17657
afterward 17656
complaints 17655
OF 17654
sectors 17653
Algeria 17652
lanes 17651
Sabha 17650
objectives 17649
Donna 17648
bothered 17647
distracted 17646
deciding 17645
##ives 17644
##CA 17643
##onia 17642
bishops 17641
Strange 17640
machinery 17639
Voiced 17638
synthesis 17637
reflects 17636
interference 17635
##TS 17634
##ury 17633
keen 17632
##ign 17631
frown 17630
freestyle 17629
ton 17628
Dixon 17627
Sacred 17626
Ruby 17625
Prison 17624
##ión 17623
1825 17622
outfit 17621
##tain 17620
curiosity 17619
##ight 17618
frames 17617
steadily 17616
emigrated 17615
horizon 17614
##erly 17613
Doc 17612
philosophical 17611
Table 17610
UTC 17609
Marina 17608
##DA 17607
secular 17606
##eed 17605
Zimbabwe 17604
cops 17603
Mack 17602
sheriff 17601
Sanskrit 17600
Francesco 17599
catches 17598
questioning 17597
streaming 17596
Kill 17595
testimony 17594
hissed 17593
tackle 17592
countryside 17591
copyright 17590
##IP 17589
Buddhism 17588
##rator 17587
ladder 17586
##ON 17585
Past 17584
rookie 17583
depths 17582
##yama 17581
##ister 17580
##HS 17579
Samantha 17578
Dana 17577
Educational 17576
brows 17575
Hammond 17574
raids 17573
envelope 17572
##sco 17571
##hart 17570
##ulus 17569
epic 17568
detection 17567
Streets 17566
Potter 17565
statistical 17564
für 17563
ni 17562
accounting 17561
##pot 17560
employer 17559
Sidney 17558
Depression 17557
commands 17556
Tracks 17555
averaged 17554
lets 17553
Ram 17552
longtime 17551
suits 17550
branded 17549
chip 17548
Shield 17547
loans 17546
ought 17545
Said 17544
sip 17543
##rome 17542
requests 17541
Vernon 17540
bordered 17539
veterans 17538
##ament 17537
Marsh 17536
Herzegovina 17535
Pine 17534
##igo 17533
mills 17532
anticipation 17531
reconnaissance 17530
##ef 17529
expectations 17528
protested 17527
arrow 17526
guessed 17525
depot 17524
maternal 17523
weakness 17522
##ap 17521
projected 17520
pour 17519
Carmen 17518
provider 17517
newer 17516
remind 17515
freed 17514
##rily 17513
##wal 17512
##tones 17511
intentions 17510
Fiji 17509
timing 17508
Match 17507
managers 17506
Kosovo 17505
Herman 17504
Wesley 17503
Chang 17502
135 17501
semifinals 17500
shouting 17499
Indo 17498
Janeiro 17497
Chess 17496
Macedonia 17495
Buck 17494
##onies 17493
rulers 17492
Mail 17491
##vas 17490
##sel 17489
MHz 17488
Programme 17487
Task 17486
commercially 17485
subtle 17484
propaganda 17483
spelled 17482
bowling 17481
basically 17480
Raven 17479
1828 17478
Colony 17477
109 17476
##ingham 17475
##wara 17474
anticipated 17473
1829 17472
##iers 17471
graduates 17470
##rton 17469
##fication 17468
endangered 17467
ISO 17466
diagnosed 17465
##tage 17464
exercises 17463
Battery 17462
bolt 17461
poison 17460
cartoon 17459
##ción 17458
hood 17457
bowed 17456
heal 17455
Meyer 17454
Reagan 17453
##wed 17452
subfamily 17451
##gent 17450
momentum 17449
infant 17448
detect 17447
##sse 17446
Chapman 17445
Darwin 17444
mechanics 17443
NSW 17442
Cancer 17441
Brooke 17440
Nuclear 17439
comprised 17438
hire 17437
sanctuary 17436
wingspan 17435
contrary 17434
remembering 17433
surprising 17432
Basic 17431
stealing 17430
OS 17429
hatred 17428
##lled 17427
masters 17426
violation 17425
Rule 17424
##nger 17423
assuming 17422
conquered 17421
louder 17420
robe 17419
Beatles 17418
legitimate 17417
##vation 17416
massacre 17415
Rica 17414
unsuccessfully 17413
poets 17412
##enberg 17411
careers 17410
doubled 17409
premier 17408
battalions 17407
Dubai 17406
Paper 17405
Louisville 17404
gestured 17403
dressing 17402
successive 17401
mumbled 17400
Vic 17399
referee 17398
pupil 17397
##cated 17396
##rre 17395
ceremonies 17394
picks 17393
##IN 17392
diplomat 17391
alike 17390
geographical 17389
rays 17388
##HA 17387
##read 17386
harbour 17385
factories 17384
pastor 17383
playwright 17382
Ultimate 17381
nationalist 17380
uniforms 17379
obtaining 17378
kit 17377
Amber 17376
##pling 17375
screenwriter 17374
ancestry 17373
##cott 17372
Fields 17371
PR 17370
Coleman 17369
rat 17368
Bavaria 17367
squeeze 17366
highlighted 17365
Adult 17364
reflecting 17363
Mel 17362
1824 17361
bicycle 17360
organizing 17359
sided 17358
Previously 17357
Underground 17356
Prof 17355
athletics 17354
coupled 17353
mortal 17352
Hampton 17351
worthy 17350
immune 17349
Ava 17348
##gun 17347
encouraging 17346
simplified 17345
##ssa 17344
##nte 17343
##ann 17342
Providence 17341
entities 17340
Pablo 17339
Strong 17338
Housing 17337
##ista 17336
##ators 17335
kidnapped 17334
mosque 17333
Kirk 17332
whispers 17331
fruits 17330
shattered 17329
fossil 17328
Empress 17327
Johns 17326
Webster 17325
Thing 17324
refusing 17323
differently 17322
specimen 17321
Ha 17320
##EN 17319
##tina 17318
##elle 17317
##night 17316
Horn 17315
neighbourhood 17314
Bolivia 17313
##rth 17312
genres 17311
Pre 17310
##vich 17309
Amelia 17308
swallow 17307
Tribune 17306
Forever 17305
Psychology 17304
Use 17303
##bers 17302
Gazette 17301
ash 17300
##usa 17299
Monster 17298
##cular 17297
delegation 17296
blowing 17295
Oblast 17294
retreated 17293
automobile 17292
##ex 17291
profits 17290
shirts 17289
devil 17288
Treasury 17287
##backs 17286
Drums 17285
Ronnie 17284
gameplay 17283
expertise 17282
Evening 17281
resides 17280
Caesar 17279
unity 17278
Crazy 17277
linking 17276
Vision 17275
donations 17274
Isabel 17273
valve 17272
Sue 17271
WWE 17270
logical 17269
availability 17268
fitting 17267
revolt 17266
##mill 17265
Linux 17264
taxi 17263
Access 17262
pollution 17261
statues 17260
Augustus 17259
##pen 17258
cello 17257
##some 17256
lacking 17255
##ati 17254
Gwen 17253
##aka 17252
##ovich 17251
1821 17250
Wow 17249
initiatives 17248
Uruguay 17247
Cain 17246
stroked 17245
examine 17244
##ī 17243
mentor 17242
moist 17241
disorders 17240
buttons 17239
##tica 17238
##anna 17237
Species 17236
Lynch 17235
museums 17234
scorer 17233
Poor 17232
eligibility 17231
op 17230
unveiled 17229
cats 17228
Title 17227
wheat 17226
critically 17225
Syracuse 17224
##osis 17223
marketed 17222
enhance 17221
Ryder 17220
##NG 17219
##ull 17218
##rna 17217
embedded 17216
throws 17215
foods 17214
happily 17213
##ami 17212
lesson 17211
formats 17210
punched 17209
##rno 17208
expressions 17207
qualities 17206
##sal 17205
Gods 17204
##lity 17203
elect 17202
wives 17201
##lling 17200
jungle 17199
Toyota 17198
reversed 17197
Grammar 17196
Cloud 17195
Agnes 17194
##ules 17193
disputed 17192
verses 17191
Lucien 17190
threshold 17189
##rea 17188
scanned 17187
##bled 17186
##dley 17185
##lice 17184
Kazakhstan 17183
Gardner 17182
Freeman 17181
##rz 17180
inspection 17179
Rita 17178
accommodation 17177
advances 17176
chill 17175
Elliot 17174
thriller 17173
Constantinople 17172
##mos 17171
debris 17170
whoever 17169
1810 17168
Santo 17167
Carey 17166
remnants 17165
Guatemala 17164
##irs 17163
carriers 17162
equations 17161
mandatory 17160
##WA 17159
anxious 17158
measurement 17157
Summit 17156
Terminal 17155
Erin 17154
##zes 17153
LLC 17152
##uo 17151
glancing 17150
sin 17149
##₃ 17148
Downtown 17147
flowering 17146
Euro 17145
Leigh 17144
Lance 17143
warn 17142
decent 17141
recommendations 17140
##ote 17139
Quartet 17138
##rrell 17137
Clarence 17136
colleague 17135
guarantee 17134
230 17133
Clayton 17132
Beast 17131
addresses 17130
prospect 17129
destroyer 17128
vegetables 17127
Leadership 17126
fatal 17125
prints 17124
190 17123
##makers 17122
Hyde 17121
persuaded 17120
illustrations 17119
Southampton 17118
Joyce 17117
beats 17116
editors 17115
mount 17114
##grave 17113
Malaysian 17112
Bombay 17111
endorsed 17110
##sian 17109
##bee 17108
applying 17107
Religion 17106
nautical 17105
bomber 17104
Na 17103
airfield 17102
gravel 17101
##rew 17100
Cave 17099
bye 17098
dig 17097
decree 17096
burden 17095
Election 17094
Hawk 17093
Fe 17092
##iled 17091
reunited 17090
##tland 17089
liver 17088
Teams 17087
Put 17086
delegates 17085
Ella 17084
##fect 17083
Cal 17082
invention 17081
Castro 17080
bored 17079
##kawa 17078
##ail 17077
Trinidad 17076
NASCAR 17075
pond 17074
develops 17073
##pton 17072
expenses 17071
Zoe 17070
Released 17069
##rf 17068
organs 17067
beta 17066
parameters 17065
Neill 17064
##lene 17063
lateral 17062
Beat 17061
blades 17060
Either 17059
##hale 17058
Mitch 17057
##ET 17056
##vous 17055
Rod 17054
burnt 17053
phones 17052
Rising 17051
##front 17050
investigating 17049
##dent 17048
Stephanie 17047
##keeper 17046
screening 17045
##uro 17044
Swan 17043
Sinclair 17042
modes 17041
bullets 17040
Nigerian 17039
melody 17038
##ques 17037
Rifle 17036
##12 17035
128 17034
##jin 17033
charm 17032
Venus 17031
##tian 17030
fusion 17029
advocated 17028
visitor 17027
pinned 17026
genera 17025
3000 17024
Ferry 17023
Solo 17022
quantity 17021
regained 17020
platinum 17019
shoots 17018
narrowly 17017
preceded 17016
update 17015
##ichi 17014
equality 17013
unaware 17012
regiments 17011
ally 17010
##tos 17009
transmitter 17008
locks 17007
Seeing 17006
outlets 17005
feast 17004
reopened 17003
##ows 17002
struggles 17001
Buddy 17000
1826 16999
bark 16998
elegant 16997
amused 16996
Pretty 16995
themed 16994
schemes 16993
Lisbon 16992
Te 16991
patted 16990
terrorism 16989
Mystery 16988
##croft 16987
##imo 16986
Madagascar 16985
Journey 16984
dealer 16983
contacted 16982
##quez 16981
ITV 16980
vacation 16979
Wong 16978
Sacramento 16977
organisms 16976
##pts 16975
balcony 16974
coloured 16973
sheer 16972
defines 16971
MC 16970
abortion 16969
forbidden 16968
accredited 16967
Newfoundland 16966
tendency 16965
entrepreneur 16964
Benny 16963
Tanzania 16962
needing 16961
finalist 16960
mythology 16959
weakened 16958
gown 16957
sentences 16956
Guest 16955
websites 16954
Tibetan 16953
UFC 16952
voluntary 16951
annoyed 16950
Welcome 16949
honestly 16948
correspondence 16947
geometry 16946
Deutsche 16945
Biology 16944
Help 16943
##aya 16942
Lines 16941
Hector 16940
##ael 16939
reluctant 16938
##ages 16937
wears 16936
inquiry 16935
##dell 16934
Holocaust 16933
Tourism 16932
Wei 16931
volcanic 16930
##mates 16929
Visual 16928
sorts 16927
neighborhoods 16926
Running 16925
apple 16924
shy 16923
Laws 16922
bend 16921
Northeast 16920
feminist 16919
Speedway 16918
Murder 16917
visa 16916
stuffed 16915
fangs 16914
transmitted 16913
fiscal 16912
Ain 16911
enlarged 16910
##ndi 16909
Cecil 16908
Peterson 16907
Benson 16906
Bedford 16905
acceptable 16904
##CC 16903
##wer 16902
purely 16901
triangle 16900
foster 16899
Alberto 16898
educator 16897
Highland 16896
acute 16895
LGBT 16894
Tina 16893
Mi 16892
adventures 16891
Davidson 16890
Honda 16889
translator 16888
monk 16887
enacted 16886
summoned 16885
##ional 16884
collector 16883
Genesis 16882
Un 16881
liner 16880
Di 16879
Statistical 16878
##CS 16877
filter 16876
Knox 16875
Religious 16874
Stella 16873
Estonian 16872
Turn 16871
##ots 16870
primitive 16869
parishes 16868
##lles 16867
complexity 16866
autobiography 16865
rigid 16864
cannon 16863
pursuing 16862
exploring 16861
##gram 16860
##mme 16859
freshman 16858
caves 16857
Expedition 16856
Traditional 16855
iTunes 16854
certification 16853
cooling 16852
##ort 16851
##gna 16850
##IT 16849
##lman 16848
##VA 16847
Motion 16846
explosive 16845
licence 16844
boxer 16843
shrine 16842
loosely 16841
Brigadier 16840
Savage 16839
Brett 16838
MVP 16837
heavier 16836
##elli 16835
##gged 16834
Buddha 16833
Easy 16832
spells 16831
fails 16830
incredibly 16829
Georg 16828
stern 16827
compatible 16826
Perfect 16825
applies 16824
cognitive 16823
excessive 16822
nightmare 16821
neighbor 16820
Sicily 16819
appealed 16818
static 16817
##₁ 16816
Aberdeen 16815
##leigh 16814
slipping 16813
bride 16812
##guard 16811
Um 16810
Clyde 16809
1818 16808
##gible 16807
Hal 16806
Frost 16805
Sanders 16804
interactive 16803
Hour 16802
##vor 16801
hurting 16800
bull 16799
termed 16798
shelf 16797
capturing 16796
##pace 16795
rolls 16794
113 16793
##bor 16792
Chilean 16791
teaches 16790
##rey 16789
exam 16788
shipped 16787
Twin 16786
borrowed 16785
##lift 16784
Shit 16783
##hot 16782
Lindsay 16781
Below 16780
Kiev 16779
Lin 16778
leased 16777
##sto 16776
Eli 16775
Diane 16774
Val 16773
subtropical 16772
shoe 16771
Bolton 16770
Dragons 16769
##rification 16768
Vatican 16767
##pathy 16766
Crisis 16765
dramatically 16764
talents 16763
babies 16762
##ores 16761
surname 16760
##AP 16759
##cology 16758
cubic 16757
opted 16756
Archer 16755
sweep 16754
tends 16753
Karnataka 16752
Judy 16751
stint 16750
Similar 16749
##nut 16748
explicitly 16747
##nga 16746
interact 16745
Mae 16744
portfolio 16743
clinic 16742
abbreviated 16741
Counties 16740
##iko 16739
hearts 16738
##ı 16737
providers 16736
screams 16735
Individual 16734
##etti 16733
Monument 16732
##iana 16731
accessed 16730
encounters 16729
gasp 16728
##rge 16727
defunct 16726
Avery 16725
##rne 16724
nobility 16723
useless 16722
Phase 16721
Vince 16720
senator 16719
##FL 16718
1813 16717
surprisingly 16716
##illo 16715
##chin 16714
Boyd 16713
rumors 16712
equity 16711
Gone 16710
Hearts 16709
chassis 16708
overnight 16707
Trek 16706
wrists 16705
submit 16704
civic 16703
designers 16702
##rity 16701
prominence 16700
decorative 16699
derives 16698
starter 16697
##AF 16696
wisdom 16695
Powers 16694
reluctantly 16693
measurements 16692
doctoral 16691
Noel 16690
Gideon 16689
Baden 16688
Cologne 16687
lawn 16686
Hawaiian 16685
anthology 16684
##rov 16683
Raiders 16682
embassy 16681
Sterling 16680
##pal 16679
Telugu 16678
troubled 16677
##FC 16676
##bian 16675
fountain 16674
observe 16673
ore 16672
##uru 16671
##gence 16670
spelling 16669
Border 16668
grinning 16667
sketch 16666
Benedict 16665
Xbox 16664
dialects 16663
readily 16662
immigrant 16661
Constitutional 16660
aided 16659
nevertheless 16658
SE 16657
tragedy 16656
##ager 16655
##rden 16654
Flash 16653
##MP 16652
Europa 16651
emissions 16650
##ield 16649
panties 16648
Beverly 16647
Homer 16646
curtain 16645
##oto 16644
toilet 16643
Isn 16642
Jerome 16641
Chiefs 16640
Hermann 16639
supernatural 16638
juice 16637
integrity 16636
Scots 16635
auto 16634
Patriots 16633
Strategic 16632
engaging 16631
prosecution 16630
cleaned 16629
Byron 16628
investments 16627
adequate 16626
vacuum 16625
laughs 16624
##inus 16623
##nge 16622
Usually 16621
Roth 16620
Cities 16619
Brand 16618
corpse 16617
##ffy 16616
Gas 16615
rifles 16614
Plains 16613
sponsorship 16612
Levi 16611
tray 16610
owed 16609
della 16608
commanders 16607
##ead 16606
tactical 16605
##rion 16604
García 16603
harbor 16602
discharge 16601
##hausen 16600
gentleman 16599
endless 16598
highways 16597
##itarian 16596
pleaded 16595
##eta 16594
archive 16593
Midnight 16592
exceptions 16591
instances 16590
Gibraltar 16589
cart 16588
##NS 16587
Darren 16586
Bonnie 16585
##yle 16584
##iva 16583
OCLC 16582
bra 16581
Jess 16580
##EA 16579
consulting 16578
Archives 16577
Chance 16576
distances 16575
commissioner 16574
##AR 16573
LL 16572
sailors 16571
##sters 16570
enthusiasm 16569
Lang 16568
##zia 16567
Yugoslav 16566
confirm 16565
possibilities 16564
Suffolk 16563
##eman 16562
banner 16561
1822 16560
Supporting 16559
fingertips 16558
civilization 16557
##gos 16556
technically 16555
1827 16554
Hastings 16553
sidewalk 16552
strained 16551
monuments 16550
Floyd 16549
Chennai 16548
Elvis 16547
villagers 16546
Cumberland 16545
strode 16544
albeit 16543
Believe 16542
planets 16541
combining 16540
Mohammad 16539
container 16538
##mouth 16537
##tures 16536
verb 16535
BA 16534
Tank 16533
Midland 16532
screened 16531
Gang 16530
Democracy 16529
Helsinki 16528
screens 16527
thread 16526
charitable 16525
##version 16524
swiftly 16523
ma 16522
rational 16521
combine 16520
##SS 16519
##antly 16518
dragging 16517
Cliff 16516
Tasmania 16515
quest 16514
professionally 16513
##aj 16512
rap 16511
##lion 16510
livestock 16509
##hua 16508
informal 16507
specially 16506
lonely 16505
Matthews 16504
Dictionary 16503
1816 16502
Observatory 16501
correspondent 16500
constitute 16499
homeless 16498
waving 16497
appreciated 16496
Analysis 16495
Meeting 16494
dagger 16493
##AL 16492
Gandhi 16491
flank 16490
Giant 16489
Choir 16488
##not 16487
glimpse 16486
toe 16485
Writer 16484
teasing 16483
springs 16482
##dt 16481
Glory 16480
healthcare 16479
regulated 16478
complaint 16477
math 16476
Publications 16475
makers 16474
##hips 16473
cement 16472
Need 16471
apologize 16470
disputes 16469
finishes 16468
Partners 16467
boring 16466
ups 16465
gains 16464
1793 16463
Congressional 16462
clergy 16461
Folk 16460
##made 16459
##nza 16458
Waters 16457
stays 16456
encoded 16455
spider 16454
betrayed 16453
Applied 16452
inception 16451
##urt 16450
##zzo 16449
wards 16448
bells 16447
UCLA 16446
Worth 16445
bombers 16444
Mo 16443
trademark 16442
Piper 16441
##vel 16440
incorporates 16439
1801 16438
##cial 16437
dim 16436
Twelve 16435
##word 16434
Appeals 16433
tighter 16432
spacecraft 16431
##tine 16430
coordinates 16429
##iac 16428
mistakes 16427
Zach 16426
laptop 16425
Teresa 16424
##llar 16423
##yr 16422
favored 16421
Nora 16420
sophisticated 16419
Irving 16418
hammer 16417
División 16416
corporations 16415
niece 16414
##rley 16413
Patterson 16412
UNESCO 16411
trafficking 16410
Ming 16409
balanced 16408
plaque 16407
Latvia 16406
broader 16405
##owed 16404
Save 16403
confined 16402
##vable 16401
Dalton 16400
tide 16399
##right 16398
##ural 16397
##num 16396
swords 16395
caring 16394
##eg 16393
IX 16392
Acting 16391
paved 16390
##moto 16389
launching 16388
Antoine 16387
substantially 16386
Pride 16385
Philharmonic 16384
grammar 16383
Indoor 16382
Ensemble 16381
enabling 16380
114 16379
resided 16378
Angelo 16377
publicity 16376
chaired 16375
crawled 16374
Maharashtra 16373
Telegraph 16372
lengthy 16371
preference 16370
differential 16369
anonymous 16368
Honey 16367
##itation 16366
wage 16365
##iki 16364
consecrated 16363
Bryant 16362
regulatory 16361
Carr 16360
##én 16359
functioning 16358
watches 16357
##ú 16356
shifts 16355
diagnosis 16354
Search 16353
app 16352
Peters 16351
##SE 16350
##cat 16349
Andreas 16348
honours 16347
temper 16346
counsel 16345
Urdu 16344
Anniversary 16343
maritime 16342
##uka 16341
harmony 16340
##unk 16339
essence 16338
Lorenzo 16337
choked 16336
Quarter 16335
indie 16334
##oll 16333
loses 16332
##prints 16331
amendment 16330
Adolf 16329
scenario 16328
similarities 16327
##rade 16326
##LC 16325
technological 16324
metric 16323
Russians 16322
thoroughly 16321
##tead 16320
cruiser 16319
1806 16318
##nier 16317
1823 16316
Teddy 16315
##psy 16314
au 16313
progressed 16312
exceptional 16311
broadcaster 16310
partnered 16309
fitness 16308
irregular 16307
placement 16306
mothers 16305
unofficial 16304
Garion 16303
Johannes 16302
1817 16301
regain 16300
Solar 16299
publishes 16298
Gates 16297
Broken 16296
thirds 16295
conversations 16294
dive 16293
Raj 16292
contributor 16291
quantities 16290
Worcester 16289
governance 16288
##flow 16287
generating 16286
pretending 16285
Belarus 16284
##voy 16283
radius 16282
skating 16281
Marathon 16280
1819 16279
affection 16278
undertook 16277
##wright 16276
los 16275
##bro 16274
locate 16273
PS 16272
excluded 16271
recreation 16270
tortured 16269
jewelry 16268
moaned 16267
##logue 16266
##cut 16265
Complete 16264
##rop 16263
117 16262
##II 16261
plantation 16260
whipped 16259
slower 16258
crater 16257
##drome 16256
Volunteer 16255
attributes 16254
celebrations 16253
regards 16252
Publishers 16251
oath 16250
utilized 16249
Robbie 16248
Giuseppe 16247
fiber 16246
indication 16245
melted 16244
archives 16243
Damien 16242
storey 16241
affecting 16240
identifying 16239
dances 16238
alumni 16237
comparable 16236
upgrade 16235
rented 16234
sprint 16233
##kle 16232
Marty 16231
##lous 16230
treating 16229
railways 16228
Lebanese 16227
erupted 16226
occupy 16225
sympathy 16224
Jude 16223
Darling 16222
Qatar 16221
drainage 16220
McCarthy 16219
heel 16218
Klein 16217
computing 16216
wireless 16215
flip 16214
Du 16213
Bella 16212
##ast 16211
##ssen 16210
narrator 16209
mist 16208
sings 16207
alignment 16206
121 16205
2020 16204
securing 16203
##rail 16202
Progress 16201
missionaries 16200
brutal 16199
mercy 16198
##shing 16197
Hip 16196
##ache 16195
##olo 16194
switching 16193
##here 16192
Malay 16191
##ob 16190
constituted 16189
Mohammed 16188
Often 16187
standings 16186
surge 16185
teachings 16184
ink 16183
detached 16182
systematic 16181
Trial 16180
Myanmar 16179
##wo 16178
offs 16177
Reyes 16176
decoration 16175
translations 16174
wherever 16173
reviewer 16172
speculation 16171
Bangkok 16170
terminated 16169
##ester 16168
beard 16167
RCA 16166
Aidan 16165
Associated 16164
Emerson 16163
Charity 16162
1803 16161
generous 16160
Dudley 16159
ATP 16158
##haven 16157
prizes 16156
toxic 16155
gloves 16154
##iles 16153
##dos 16152
Turning 16151
myth 16150
Parade 16149
##building 16148
Hits 16147
##eva 16146
teamed 16145
Above 16144
Duchess 16143
Holt 16142
##oth 16141
Sub 16140
Ace 16139
atomic 16138
inform 16137
Ship 16136
depend 16135
Jun 16134
##bes 16133
Norwich 16132
globe 16131
Baroque 16130
Christina 16129
Cotton 16128
Tunnel 16127
kidding 16126
Concerto 16125
Brittany 16124
tasted 16123
phases 16122
stems 16121
angles 16120
##TE 16119
##nam 16118
##40 16117
charted 16116
Alison 16115
intensive 16114
Willis 16113
glory 16112
##lit 16111
Bergen 16110
est 16109
taller 16108
##dicate 16107
labeled 16106
##ido 16105
commentator 16104
Warrior 16103
Viscount 16102
shortened 16101
aisle 16100
Aria 16099
Spike 16098
spectators 16097
goodbye 16096
overlooking 16095
mammals 16094
##lude 16093
wholly 16092
Barrett 16091
##gus 16090
accompany 16089
seventy 16088
employ 16087
##mb 16086
ambitious 16085
beloved 16084
basket 16083
##mma 16082
##lding 16081
halted 16080
descendant 16079
pad 16078
exclaimed 16077
cloak 16076
##pet 16075
Strait 16074
Bang 16073
Aviv 16072
sadness 16071
##ffer 16070
Donovan 16069
1880s 16068
agenda 16067
swinging 16066
##quin 16065
jerk 16064
Boat 16063
##rist 16062
nervously 16061
Silence 16060
Echo 16059
shout 16058
implies 16057
##iser 16056
##cking 16055
Shiva 16054
Weston 16053
damages 16052
##tist 16051
effectiveness 16050
Horace 16049
cycling 16048
Rey 16047
ache 16046
Photography 16045
PDF 16044
Dear 16043
leans 16042
Lea 16041
##vision 16040
booth 16039
attained 16038
disbelief 16037
##eus 16036
##ution 16035
Hop 16034
pension 16033
toys 16032
Eurovision 16031
faithful 16030
##heads 16029
Andre 16028
owe 16027
default 16026
Atlas 16025
Megan 16024
highlights 16023
lovers 16022
Constantine 16021
Sixth 16020
masses 16019
##garh 16018
emerge 16017
Auto 16016
Slovak 16015
##oa 16014
##vert 16013
Superintendent 16012
flicked 16011
inventor 16010
Chambers 16009
Frankie 16008
Romeo 16007
pottery 16006
companions 16005
Rudolf 16004
##liers 16003
diary 16002
Unless 16001
tap 16000
alter 15999
Randall 15998
##ddle 15997
##eal 15996
limitations 15995
##boards 15994
utterly 15993
knelt 15992
guaranteed 15991
Cowboys 15990
Islander 15989
horns 15988
##ike 15987
Wendy 15986
sexually 15985
Smart 15984
breasts 15983
##cian 15982
compromise 15981
Duchy 15980
AT 15979
Galaxy 15978
analog 15977
Style 15976
##aking 15975
weighed 15974
Nigel 15973
optional 15972
Czechoslovakia 15971
practicing 15970
Ham 15969
##0s 15968
feedback 15967
batted 15966
uprising 15965
operative 15964
applicable 15963
criminals 15962
classrooms 15961
Somehow 15960
##ode 15959
##OM 15958
Naomi 15957
Winchester 15956
##pping 15955
Bart 15954
Regina 15953
competitor 15952
Recorded 15951
Yuan 15950
Vera 15949
lust 15948
Confederation 15947
##test 15946
suck 15945
1809 15944
Lambert 15943
175 15942
Friend 15941
##ppa 15940
Slowly 15939
##⁺ 15938
Wake 15937
Dec 15936
##aneous 15935
chambers 15934
Color 15933
Gus 15932
##site 15931
Alternative 15930
##world 15929
Exeter 15928
Omaha 15927
celebrities 15926
striker 15925
210 15924
dwarf 15923
meals 15922
Oriental 15921
Pearson 15920
financing 15919
revenues 15918
underwater 15917
Steele 15916
screw 15915
Feeling 15914
Mt 15913
acids 15912
badge 15911
swore 15910
theaters 15909
Moving 15908
admired 15907
lung 15906
knot 15905
penalties 15904
116 15903
fork 15902
##cribed 15901
Afghan 15900
outskirts 15899
Cambodia 15898
oval 15897
wool 15896
fossils 15895
Ned 15894
Countess 15893
Darkness 15892
delicious 15891
##nica 15890
Evelyn 15889
Recordings 15888
guidelines 15887
##CP 15886
Sandra 15885
meantime 15884
Antarctica 15883
modeling 15882
granddaughter 15881
##rial 15880
Roma 15879
Seventh 15878
Sunshine 15877
Gabe 15876
##nton 15875
Shop 15874
Turks 15873
prolific 15872
soup 15871
parody 15870
##nta 15869
Judith 15868
disciplines 15867
resign 15866
Companies 15865
Libya 15864
Jets 15863
inserted 15862
Mile 15861
retrieve 15860
filmmaker 15859
##rand 15858
realistic 15857
unhappy 15856
##30 15855
sandstone 15854
##nas 15853
##lent 15852
##ush 15851
##rous 15850
Brent 15849
trash 15848
Rescue 15847
##unted 15846
Autumn 15845
disgust 15844
flexible 15843
infinite 15842
sideways 15841
##oss 15840
##vik 15839
trailing 15838
disturbed 15837
50th 15836
Newark 15835
posthumously 15834
##rol 15833
Schmidt 15832
Josef 15831
##eous 15830
determining 15829
menu 15828
Pole 15827
Anita 15826
Luc 15825
peaks 15824
118 15823
Yard 15822
warrant 15821
generic 15820
deserted 15819
Walking 15818
stamp 15817
tracked 15816
##berger 15815
paired 15814
surveyed 15813
sued 15812
Rainbow 15811
##isk 15810
Carpenter 15809
submarines 15808
realization 15807
touches 15806
sweeping 15805
Fritz 15804
module 15803
Whether 15802
resembles 15801
##form 15800
##lop 15799
unsure 15798
hunters 15797
Zagreb 15796
unemployment 15795
Senators 15794
Georgetown 15793
##onic 15792
Barker 15791
foul 15790
commercials 15789
Dresden 15788
Words 15787
collision 15786
Carlton 15785
Fashion 15784
doubted 15783
##ril 15782
precision 15781
MIT 15780
Jacobs 15779
mob 15778
Monk 15777
retaining 15776
gotta 15775
##rod 15774
remake 15773
Fast 15772
chips 15771
##pled 15770
sufficiently 15769
##lights 15768
delivering 15767
##enburg 15766
Dancing 15765
Barton 15764
Officers 15763
metals 15762
##lake 15761
religions 15760
##ré 15759
motivated 15758
differs 15757
dorsal 15756
##birds 15755
##rts 15754
Priest 15753
polished 15752
##aling 15751
Saxony 15750
Wyatt 15749
knockout 15748
##hor 15747
Lopez 15746
RNA 15745
##link 15744
metallic 15743
##kas 15742
daylight 15741
Montenegro 15740
##lining 15739
wrapping 15738
resemble 15737
Jam 15736
Viking 15735
uncertainty 15734
angels 15733
enables 15732
##fy 15731
Stuttgart 15730
tricks 15729
tattoo 15728
127 15727
wicked 15726
asset 15725
breach 15724
##yman 15723
MW 15722
breaths 15721
Jung 15720
im 15719
1798 15718
noon 15717
vowel 15716
##qua 15715
calmly 15714
seasonal 15713
chat 15712
ingredients 15711
cooled 15710
Randolph 15709
ensuring 15708
##ib 15707
##idal 15706
flashing 15705
1808 15704
Macedonian 15703
Cool 15702
councils 15701
##lick 15700
advantages 15699
Immediately 15698
Madras 15697
##cked 15696
Pain 15695
fancy 15694
chronic 15693
Malayalam 15692
begged 15691
##nese 15690
Inner 15689
feathers 15688
##vey 15687
Names 15686
dedication 15685
Sing 15684
pan 15683
Fischer 15682
nurses 15681
Sharp 15680
inning 15679
stamps 15678
Meg 15677
##ello 15676
edged 15675
motioned 15674
Jacksonville 15673
##ffle 15672
##dic 15671
##US 15670
divide 15669
garnered 15668
Ranking 15667
chasing 15666
modifications 15665
##oc 15664
clever 15663
midst 15662
flushed 15661
##DP 15660
void 15659
##sby 15658
ambulance 15657
beaches 15656
groan 15655
isolation 15654
strengthen 15653
prevention 15652
##ffs 15651
Scouts 15650
reformed 15649
geographic 15648
squadrons 15647
Fiona 15646
Kai 15645
Consequently 15644
##uss 15643
overtime 15642
##yas 15641
Fr 15640
##BL 15639
Papua 15638
Mixed 15637
glances 15636
Haiti 15635
Sporting 15634
sandy 15633
confronted 15632
René 15631
Tanner 15630
1811 15629
##IM 15628
advisory 15627
trim 15626
##ibe 15625
González 15624
gambling 15623
Jupiter 15622
##ility 15621
##owski 15620
##nar 15619
122 15618
apology 15617
teased 15616
Pool 15615
feminine 15614
wicket 15613
eagle 15612
shiny 15611
##lator 15610
blend 15609
peaking 15608
nasty 15607
nodding 15606
fraction 15605
tech 15604
Noble 15603
Kuwait 15602
brushing 15601
Italia 15600
Canberra 15599
duet 15598
Johan 15597
1805 15596
Written 15595
cameo 15594
Stalin 15593
pig 15592
cord 15591
##zio 15590
Surely 15589
SA 15588
owing 15587
holidays 15586
123 15585
Ranger 15584
lighthouse 15583
##ige 15582
miners 15581
1804 15580
##ë 15579
##gren 15578
##ried 15577
crashing 15576
##atory 15575
wartime 15574
highlight 15573
inclined 15572
Torres 15571
Tax 15570
##zel 15569
##oud 15568
Own 15567
##corn 15566
Divine 15565
EMI 15564
Relief 15563
Northwestern 15562
ethics 15561
BMW 15560
click 15559
plasma 15558
Christie 15557
coordinator 15556
Shepherd 15555
washing 15554
cooked 15553
##dio 15552
##eat 15551
Cerambycidae 15550
algebra 15549
Engine 15548
costumes 15547
Vampire 15546
vault 15545
submission 15544
virtue 15543
assumption 15542
##rell 15541
Toledo 15540
##oting 15539
##rva 15538
crept 15537
emphasized 15536
##lton 15535
##ood 15534
Greeks 15533
surgical 15532
crest 15531
Patrol 15530
Beta 15529
Tessa 15528
##GS 15527
pizza 15526
traits 15525
rats 15524
Iris 15523
spray 15522
##GC 15521
Lightning 15520
binary 15519
escapes 15518
##take 15517
Clary 15516
crowds 15515
##zong 15514
hauled 15513
maid 15512
##fen 15511
Manning 15510
##yang 15509
Nielsen 15508
aesthetic 15507
sympathetic 15506
affiliation 15505
soaked 15504
Mozart 15503
personalities 15502
begging 15501
##iga 15500
clip 15499
Raphael 15498
yearly 15497
Lima 15496
abundant 15495
##lm 15494
1794 15493
strips 15492
Initiative 15491
reporters 15490
##vsky 15489
consolidated 15488
##itated 15487
Civic 15486
rankings 15485
mandate 15484
symbolic 15483
##ively 15482
1807 15481
rental 15480
duck 15479
nave 15478
complications 15477
##nor 15476
Irene 15475
Nazis 15474
haunted 15473
scholarly 15472
Pratt 15471
Gran 15470
Embassy 15469
Wave 15468
pity 15467
genius 15466
bats 15465
canton 15464
Tropical 15463
marker 15462
##cos 15461
escorted 15460
Climate 15459
##posed 15458
appreciation 15457
freezing 15456
puzzle 15455
Internal 15454
pools 15453
Shawn 15452
pathway 15451
Daniels 15450
Fitzgerald 15449
extant 15448
olive 15447
Vanessa 15446
marriages 15445
cocked 15444
##dging 15443
prone 15442
chemicals 15441
doll 15440
drawer 15439
##HF 15438
Stark 15437
Property 15436
##tai 15435
flowed 15434
Sheridan 15433
##uated 15432
Less 15431
Omar 15430
remarks 15429
catalogue 15428
Seymour 15427
wreck 15426
Carrie 15425
##bby 15424
Mercer 15423
displaced 15422
sovereignty 15421
rip 15420
Flynn 15419
Archie 15418
Quarterfinals 15417
Hassan 15416
##ards 15415
vein 15414
Osaka 15413
pouring 15412
wages 15411
Romance 15410
##cript 15409
##phere 15408
550 15407
##eil 15406
##stown 15405
Documentary 15404
ancestor 15403
CNN 15402
Panthers 15401
publishers 15400
Rise 15399
##mu 15398
biting 15397
Bright 15396
String 15395
succeeding 15394
119 15393
loaned 15392
Warwick 15391
Sheikh 15390
Von 15389
Afterwards 15388
Jax 15387
Camden 15386
helicopters 15385
Hence 15384
Laurel 15383
##ddy 15382
transaction 15381
Corp 15380
clause 15379
##owing 15378
##kel 15377
Investment 15376
cups 15375
Lucia 15374
Moss 15373
Giles 15372
chef 15371
López 15370
decisive 15369
30th 15368
distress 15367
linguistic 15366
surveys 15365
Ready 15364
maiden 15363
Touch 15362
frontier 15361
incorporate 15360
exotic 15359
mollusk 15358
Leopold 15357
Ride 15356
##wain 15355
##ndo 15354
teammates 15353
tones 15352
drift 15351
ordering 15350
Feb 15349
Penny 15348
Normandy 15347
Present 15346
Flag 15345
pipes 15344
##rro 15343
delight 15342
motto 15341
Tibet 15340
leap 15339
Eliza 15338
Produced 15337
teenagers 15336
sitcom 15335
Try 15334
Hansen 15333
Cody 15332
wandered 15331
terrestrial 15330
frog 15329
scare 15328
resisted 15327
employers 15326
coined 15325
##DS 15324
resistant 15323
Fly 15322
captive 15321
dissolution 15320
judged 15319
associates 15318
defining 15317
##court 15316
Hale 15315
##mbo 15314
raises 15313
clusters 15312
twelfth 15311
##metric 15310
Roads 15309
##itude 15308
satisfy 15307
Android 15306
Reds 15305
Gloucester 15304
Category 15303
Valencia 15302
Daemon 15301
stabbed 15300
Luna 15299
Churches 15298
Canton 15297
##eller 15296
Attack 15295
Kashmir 15294
annexed 15293
grabs 15292
asteroid 15291
Hartford 15290
recommendation 15289
Rodriguez 15288
handing 15287
stressed 15286
frequencies 15285
delegate 15284
Bones 15283
Erie 15282
Weber 15281
Hands 15280
Acts 15279
millimetres 15278
24th 15277
Fat 15276
Howe 15275
casually 15274
##SL 15273
convent 15272
1790 15271
IF 15270
##sity 15269
1795 15268
yelling 15267
##ises 15266
drain 15265
addressing 15264
amino 15263
Marcel 15262
Sylvia 15261
Paramount 15260
Gerard 15259
Volleyball 15258
butter 15257
124 15256
Albion 15255
##GB 15254
triggered 15253
1792 15252
folding 15251
accepts 15250
##ße 15249
preparations 15248
Wimbledon 15247
dose 15246
##grass 15245
escaping 15244
##tling 15243
import 15242
charging 15241
##dation 15240
280 15239
Nolan 15238
##fried 15237
Calcutta 15236
##pool 15235
Cove 15234
examining 15233
minded 15232
heartbeat 15231
twisting 15230
domains 15229
bush 15228
Tunisia 15227
Purple 15226
Leone 15225
##code 15224
evacuated 15223
battlefield 15222
tiger 15221
Electrical 15220
##ared 15219
chased 15218
##cre 15217
cultivated 15216
Jet 15215
solved 15214
shrug 15213
ringing 15212
Impact 15211
##iant 15210
kilometre 15209
##log 15208
commemorate 15207
migrated 15206
singular 15205
designing 15204
promptly 15203
Higgins 15202
##own 15201
##aves 15200
freshwater 15199
Marketing 15198
Payne 15197
beg 15196
locker 15195
pray 15194
implied 15193
AAA 15192
corrected 15191
Trans 15190
Europeans 15189
Ashe 15188
acknowledge 15187
Introduction 15186
##writer 15185
##llen 15184
Munster 15183
auxiliary 15182
growl 15181
Hours 15180
Poems 15179
##AT 15178
reduces 15177
Plain 15176
plague 15175
canceled 15174
detention 15173
polite 15172
necklace 15171
Gustav 15170
##gu 15169
##lance 15168
En 15167
Angola 15166
##bb 15165
dwelling 15164
##hea 15163
5000 15162
Qing 15161
Dodgers 15160
rim 15159
##ored 15158
##haus 15157
spilled 15156
Elisabeth 15155
Viktor 15154
backpack 15153
1802 15152
amended 15151
##worthy 15150
Phantom 15149
##ctive 15148
keeper 15147
##loom 15146
Vikings 15145
##gua 15144
employs 15143
Tehran 15142
specialty 15141
##bate 15140
Marx 15139
Mirror 15138
Jenna 15137
rides 15136
needle 15135
prayers 15134
clarinet 15133
forewings 15132
##walk 15131
Midlands 15130
convincing 15129
advocacy 15128
Cao 15127
Birds 15126
cycles 15125
Clement 15124
Gil 15123
bubble 15122
Maximum 15121
humanitarian 15120
Tan 15119
cries 15118
##SI 15117
Parsons 15116
Trio 15115
offshore 15114
Innovation 15113
clutched 15112
260 15111
##mund 15110
##duct 15109
Prairie 15108
relied 15107
Falcon 15106
##ste 15105
Kolkata 15104
Gill 15103
Swift 15102
Negro 15101
Zoo 15100
valleys 15099
##OL 15098
Opening 15097
beams 15096
MPs 15095
outline 15094
Bermuda 15093
Personal 15092
exceed 15091
productive 15090
##MT 15089
republic 15088
forum 15087
##sty 15086
tornado 15085
Known 15084
dipped 15083
Edith 15082
folks 15081
mathematician 15080
watershed 15079
Ricardo 15078
synthetic 15077
##dication 15076
deity 15075
##₄ 15074
gaming 15073
subjected 15072
suspects 15071
Foot 15070
swollen 15069
Motors 15068
##tty 15067
##ý 15066
aloud 15065
ceremonial 15064
es 15063
nuts 15062
intend 15061
Carlisle 15060
tasked 15059
hesitation 15058
sponsors 15057
unified 15056
inmates 15055
##ctions 15054
##stan 15053
tiles 15052
jokes 15051
whereby 15050
outcomes 15049
Lights 15048
scary 15047
Stoke 15046
Portrait 15045
Blind 15044
sergeant 15043
violations 15042
cultivation 15041
fuselage 15040
Mister 15039
Alfonso 15038
candy 15037
sticks 15036
teen 15035
agony 15034
Enough 15033
invite 15032
Perkins 15031
Appeal 15030
mapping 15029
undergo 15028
Glacier 15027
Melanie 15026
affects 15025
incomplete 15024
##dd 15023
Colombian 15022
##nate 15021
CBC 15020
purchasing 15019
bypass 15018
Drug 15017
Electronics 15016
Frontier 15015
Coventry 15014
##aan 15013
autonomy 15012
scrambled 15011
Recent 15010
bounced 15009
cow 15008
experiencing 15007
Rouge 15006
cuisine 15005
Elite 15004
disability 15003
Ji 15002
inheritance 15001
wildly 15000
Into 14999
##wig 14998
confrontation 14997
Wheeler 14996
shiver 14995
Performing 14994
aligned 14993
consequently 14992
Alexis 14991
Sin 14990
woodland 14989
executives 14988
Stevenson 14987
Ferrari 14986
inevitable 14985
##cist 14984
##dha 14983
##base 14982
Corner 14981
comeback 14980
León 14979
##eck 14978
##urus 14977
MacDonald 14976
pioneering 14975
breakdown 14974
landscapes 14973
Veterans 14972
Rican 14971
Theological 14970
stirred 14969
participant 14968
Credit 14967
Hyderabad 14966
snails 14965
Claudia 14964
##ocene 14963
compliance 14962
##MI 14961
Flags 14960
Middlesex 14959
storms 14958
winding 14957
asserted 14956
er 14955
##ault 14954
##kal 14953
waking 14952
##rates 14951
abbey 14950
Augusta 14949
tooth 14948
trustees 14947
Commodore 14946
##uded 14945
Cunningham 14944
NC 14943
Witch 14942
marching 14941
Sword 14940
Same 14939
spiral 14938
Harley 14937
##ahan 14936
Zack 14935
Audio 14934
1890s 14933
##fit 14932
Simmons 14931
Kara 14930
Veronica 14929
negotiated 14928
Speaking 14927
FIBA 14926
Conservatory 14925
formations 14924
constituencies 14923
explicit 14922
facial 14921
eleventh 14920
##ilt 14919
villain 14918
##dog 14917
##case 14916
##hol 14915
armored 14914
tin 14913
hairs 14912
##umi 14911
##rai 14910
mattress 14909
Angus 14908
cease 14907
verbal 14906
Recreation 14905
savings 14904
Aurora 14903
peers 14902
Monastery 14901
Airways 14900
drowned 14899
additions 14898
downstream 14897
sticking 14896
Shi 14895
mice 14894
skiing 14893
##CD 14892
Raw 14891
Riverside 14890
warming 14889
hooked 14888
boost 14887
memorable 14886
posed 14885
treatments 14884
320 14883
##dai 14882
celebrating 14881
blink 14880
helpless 14879
circa 14878
Flowers 14877
PM 14876
uncommon 14875
Oct 14874
Hawks 14873
overwhelmed 14872
Sparhawk 14871
repaired 14870
Mercy 14869
pose 14868
counterpart 14867
compare 14866
survives 14865
##½ 14864
##eum 14863
coordinate 14862
Lil 14861
grandchildren 14860
notorious 14859
Yi 14858
Judaism 14857
Juliet 14856
accusations 14855
1789 14854
floated 14853
marathon 14852
roar 14851
fortified 14850
reunion 14849
145 14848
Nov 14847
Paula 14846
##fare 14845
##toria 14844
tearing 14843
Cedar 14842
disappearance 14841
Si 14840
gifted 14839
scar 14838
270 14837
PBS 14836
Technologies 14835
Marvin 14834
650 14833
roller 14832
cupped 14831
negotiate 14830
##erman 14829
passport 14828
tram 14827
miracle 14826
styled 14825
##tier 14824
necessity 14823
Des 14822
rehabilitation 14821
Lara 14820
USD 14819
psychic 14818
wipe 14817
##lem 14816
mistaken 14815
##lov 14814
charming 14813
Rider 14812
pageant 14811
dynamics 14810
Cassidy 14809
##icus 14808
defenses 14807
##tadt 14806
##vant 14805
aging 14804
##inal 14803
declare 14802
mistress 14801
supervised 14800
##alis 14799
##rest 14798
Ashton 14797
submerged 14796
sack 14795
Dodge 14794
grocery 14793
ramp 14792
Teacher 14791
lineage 14790
imagery 14789
arrange 14788
inscriptions 14787
Organisation 14786
Siege 14785
combines 14784
pounded 14783
Fleming 14782
legends 14781
columnist 14780
Apostolic 14779
prose 14778
insight 14777
Arabian 14776
expired 14775
##uses 14774
##nos 14773
Alone 14772
elbows 14771
##asis 14770
##adi 14769
##combe 14768
Step 14767
Waterloo 14766
Alternate 14765
interval 14764
Sonny 14763
plains 14762
Goals 14761
incorporating 14760
recruit 14759
adjoining 14758
Cheshire 14757
excluding 14756
marrying 14755
ducked 14754
Cherokee 14753
par 14752
##inate 14751
hiking 14750
Coal 14749
##bow 14748
natives 14747
ribbon 14746
Allies 14745
con 14744
descriptions 14743
positively 14742
##lal 14741
defendant 14740
22nd 14739
Vivian 14738
##beat 14737
Weather 14736
possessions 14735
Date 14734
sweetheart 14733
inability 14732
Salisbury 14731
adviser 14730
ideology 14729
Nordic 14728
##eu 14727
Cubs 14726
IP 14725
Administrative 14724
##nick 14723
facto 14722
liberation 14721
Burnett 14720
Javier 14719
fashioned 14718
Electoral 14717
Turin 14716
theft 14715
unanimous 14714
Per 14713
1799 14712
Clan 14711
Hawkins 14710
Teachers 14709
##wes 14708
Cameroon 14707
Parkway 14706
##gment 14705
demolition 14704
atoms 14703
nucleus 14702
##thi 14701
recovering 14700
##yte 14699
##vice 14698
lifts 14697
Must 14696
deposit 14695
Hancock 14694
Semi 14693
darkened 14692
Declaration 14691
moan 14690
muscular 14689
Myers 14688
attractions 14687
sauce 14686
simulation 14685
##weed 14684
Alps 14683
barriers 14682
##baum 14681
Barack 14680
galleries 14679
Min 14678
holders 14677
Greenwich 14676
donation 14675
Everybody 14674
Wolfgang 14673
sandwich 14672
Kendra 14671
Collegiate 14670
casino 14669
Slavic 14668
ensuing 14667
Porto 14666
##grapher 14665
Jesuit 14664
suppressed 14663
tires 14662
Ibrahim 14661
protesters 14660
Ibn 14659
Amos 14658
1796 14657
phenomena 14656
Hayden 14655
Paraguay 14654
Squad 14653
Reilly 14652
complement 14651
aluminum 14650
##eers 14649
doubts 14648
decay 14647
demise 14646
Practice 14645
patience 14644
fireplace 14643
transparent 14642
monarchy 14641
##person 14640
Rodney 14639
mattered 14638
rotating 14637
Clifford 14636
disposal 14635
Standards 14634
paced 14633
##llie 14632
arise 14631
tallest 14630
tug 14629
documentation 14628
node 14627
freeway 14626
Nikolai 14625
##cite 14624
clicked 14623
imaging 14622
Lorraine 14621
Tactical 14620
Different 14619
Regular 14618
Holding 14617
165 14616
Pilot 14615
guarded 14614
##polis 14613
Classics 14612
Mongolia 14611
Brock 14610
monarch 14609
cellular 14608
receptors 14607
Mini 14606
Chandler 14605
financed 14604
financially 14603
Lives 14602
erection 14601
Fuller 14600
unnamed 14599
Kannada 14598
cc 14597
passive 14596
plateau 14595
##arity 14594
freak 14593
##rde 14592
retrieved 14591
transactions 14590
##sus 14589
23rd 14588
swimmer 14587
beef 14586
fulfill 14585
Arlington 14584
offspring 14583
reasoning 14582
Rhys 14581
saves 14580
pseudonym 14579
centimetres 14578
shivered 14577
shuddered 14576
##ME 14575
Feel 14574
##otic 14573
professors 14572
Blackburn 14571
##eng 14570
##life 14569
##haw 14568
interred 14567
lodge 14566
fragile 14565
Della 14564
guardian 14563
##bbled 14562
catalog 14561
clad 14560
observer 14559
tract 14558
declaring 14557
##headed 14556
Lok 14555
dean 14554
Isabelle 14553
1776 14552
irrigation 14551
spectacular 14550
shuttle 14549
mastering 14548
##aro 14547
Nathaniel 14546
Retired 14545
##lves 14544
Brennan 14543
##kha 14542
dick 14541
##dated 14540
##hler 14539
Rookie 14538
leapt 14537
televised 14536
weekends 14535
Baghdad 14534
Yemen 14533
##fo 14532
factions 14531
ion 14530
Lab 14529
mortality 14528
passionate 14527
Hammer 14526
encompasses 14525
confluence 14524
demonstrations 14523
Ki 14522
derivative 14521
soils 14520
##unch 14519
Ranch 14518
Universities 14517
conventions 14516
outright 14515
aiming 14514
hierarchy 14513
reside 14512
illusion 14511
graves 14510
rituals 14509
126 14508
Antwerp 14507
Dover 14506
##ema 14505
campuses 14504
Hobart 14503
lifelong 14502
aliens 14501
##vity 14500
Memory 14499
coordination 14498
alphabet 14497
##mina 14496
Titans 14495
pushes 14494
Flanders 14493
##holder 14492
Normal 14491
excellence 14490
capped 14489
profound 14488
Taipei 14487
portrayal 14486
sparked 14485
scratch 14484
se 14483
##eas 14482
##hir 14481
Mackenzie 14480
##cation 14479
Neo 14478
Shin 14477
##lined 14476
magnificent 14475
poster 14474
batsman 14473
##rgent 14472
persuade 14471
##ement 14470
Icelandic 14469
miserable 14468
collegiate 14467
Feature 14466
geography 14465
##mura 14464
Comic 14463
Circus 14462
processor 14461
barracks 14460
Tale 14459
##11 14458
Bulls 14457
##rap 14456
strengthened 14455
##bell 14454
injection 14453
miniature 14452
broadly 14451
Letter 14450
fare 14449
hostage 14448
traders 14447
##nium 14446
##mere 14445
Fortune 14444
Rivera 14443
Lu 14442
triumph 14441
Browns 14440
Bangalore 14439
cooperative 14438
Basel 14437
announcing 14436
Sawyer 14435
##him 14434
##cco 14433
##kara 14432
darted 14431
##AD 14430
##nova 14429
sucking 14428
##position 14427
perimeter 14426
flung 14425
Holdings 14424
##NP 14423
Basque 14422
sketches 14421
Augustine 14420
Silk 14419
Elijah 14418
analyst 14417
armour 14416
riots 14415
acquiring 14414
ghosts 14413
##ems 14412
132 14411
Pioneer 14410
Colleges 14409
Simone 14408
Economy 14407
Author 14406
semester 14405
Soldier 14404
il 14403
##unting 14402
##bid 14401
freaking 14400
Vista 14399
tumor 14398
##bat 14397
murderer 14396
##eda 14395
unreleased 14394
##grove 14393
##sser 14392
##té 14391
edit 14390
statute 14389
sovereign 14388
##gawa 14387
Killer 14386
stares 14385
Fury 14384
comply 14383
##lord 14382
##nant 14381
barrels 14380
Andhra 14379
Maple 14378
generator 14377
mascot 14376
unusually 14375
eds 14374
##ante 14373
##runner 14372
rod 14371
##tles 14370
Historically 14369
Jennings 14368
dumped 14367
Established 14366
resemblance 14365
##lium 14364
##cise 14363
##body 14362
##voke 14361
Lydia 14360
##hou 14359
##iring 14358
nonetheless 14357
1797 14356
corrupt 14355
patrons 14354
physicist 14353
sneak 14352
Livingston 14351
Citizens 14350
Architects 14349
Werner 14348
trends 14347
Melody 14346
eighty 14345
markings 14344
brakes 14343
##titled 14342
oversaw 14341
processed 14340
mock 14339
Midwest 14338
intervals 14337
##EF 14336
stretches 14335
werewolf 14334
##MG 14333
Pack 14332
controller 14331
##dition 14330
Honours 14329
cane 14328
Griffith 14327
vague 14326
repertoire 14325
Courtney 14324
orgasm 14323
Abdullah 14322
dominance 14321
occupies 14320
Ya 14319
introduces 14318
Lester 14317
instinct 14316
collaborative 14315
Indigenous 14314
refusal 14313
##rank 14312
outlet 14311
debts 14310
spear 14309
155 14308
##keeping 14307
##ulu 14306
Catalan 14305
##osh 14304
tensions 14303
##OT 14302
bred 14301
crude 14300
Dunn 14299
abdomen 14298
accurately 14297
##fu 14296
##lough 14295
accidents 14294
Row 14293
Audrey 14292
rude 14291
Getting 14290
promotes 14289
replies 14288
Paolo 14287
merge 14286
##nock 14285
trans 14284
Evangelical 14283
automated 14282
Canon 14281
##wear 14280
##ggy 14279
##gma 14278
Broncos 14277
foolish 14276
icy 14275
Voices 14274
knives 14273
Aside 14272
dreamed 14271
generals 14270
molecule 14269
AG 14268
rejection 14267
insufficient 14266
##nagar 14265
deposited 14264
sacked 14263
Landing 14262
arches 14261
helpful 14260
devotion 14259
intake 14258
Flower 14257
PGA 14256
dragons 14255
evolutionary 14254
##mail 14253
330 14252
GM 14251
tissues 14250
##tree 14249
arcade 14248
composite 14247
lid 14246
Across 14245
implications 14244
lacks 14243
theological 14242
assessed 14241
concentrations 14240
Den 14239
##mans 14238
##ulous 14237
Fu 14236
homeland 14235
##stream 14234
Harriet 14233
ecclesiastical 14232
troop 14231
ecological 14230
winked 14229
##xed 14228
eighteenth 14227
Casino 14226
specializing 14225
##sworth 14224
unlocked 14223
supreme 14222
devastated 14221
snatched 14220
trauma 14219
GDP 14218
Nord 14217
saddle 14216
Wes 14215
convenient 14214
competes 14213
##nu 14212
##iss 14211
Marian 14210
subway 14209
##rri 14208
successes 14207
umbrella 14206
##far 14205
##ually 14204
Dundee 14203
##cence 14202
spark 14201
##rix 14200
##я 14199
Quality 14198
Geological 14197
cockpit 14196
rpm 14195
Cam 14194
Bucharest 14193
riot 14192
##PM 14191
Leah 14190
##dad 14189
##pose 14188
Ka 14187
m³ 14186
Bundesliga 14185
Wolfe 14184
grim 14183
textile 14182
quartet 14181
expressing 14180
fantastic 14179
destroyers 14178
eternal 14177
picnic 14176
##oro 14175
contractor 14174
1775 14173
spanning 14172
declining 14171
##cating 14170
Lowe 14169
Sutherland 14168
Emirates 14167
downward 14166
nineteen 14165
violently 14164
scout 14163
viral 14162
melting 14161
enterprises 14160
##cer 14159
Crosby 14158
Jubilee 14157
antenna 14156
urgent 14155
Rory 14154
##uin 14153
##sure 14152
wandering 14151
##gler 14150
##vent 14149
Suzuki 14148
Lifetime 14147
Dirty 14146
occupying 14145
##quent 14144
Disc 14143
Guru 14142
mound 14141
Lennon 14140
Humanities 14139
listeners 14138
Walton 14137
uh 14136
Braves 14135
Bologna 14134
##bis 14133
##gra 14132
Dwight 14131
crawl 14130
flags 14129
memoir 14128
Thorne 14127
Archdiocese 14126
dairy 14125
##uz 14124
##tery 14123
roared 14122
adjust 14121
patches 14120
inn 14119
Knowing 14118
##bbed 14117
##zan 14116
scan 14115
Papa 14114
precipitation 14113
angrily 14112
passages 14111
postal 14110
Phi 14109
embraced 14108
blacks 14107
economist 14106
triangular 14105
Sen 14104
shooter 14103
punished 14102
Millennium 14101
Swimming 14100
confessed 14099
Aston 14098
defeats 14097
Era 14096
cousins 14095
Williamson 14094
##rer 14093
daytime 14092
dumb 14091
##rek 14090
underway 14089
specification 14088
Buchanan 14087
prayed 14086
concealed 14085
activation 14084
##issa 14083
canon 14082
awesome 14081
Starr 14080
plural 14079
summers 14078
##fields 14077
Slam 14076
unnecessary 14075
1791 14074
resume 14073
trilogy 14072
compression 14071
##rough 14070
selective 14069
dignity 14068
Yan 14067
##xton 14066
immense 14065
##yun 14064
lone 14063
seeded 14062
hiatus 14061
lightweight 14060
summary 14059
Yo 14058
approve 14057
Galway 14056
rejoined 14055
Elise 14054
garbage 14053
burns 14052
speeches 14051
129 14050
Honduras 14049
##liness 14048
inventory 14047
jersey 14046
FK 14045
assure 14044
slumped 14043
Lionel 14042
Suite 14041
##sbury 14040
Lena 14039
continuation 14038
##AN 14037
brightly 14036
##nti 14035
GT 14034
Knowledge 14033
##park 14032
##lius 14031
lethal 14030
##tribution 14029
##sions 14028
Certificate 14027
Mara 14026
##lby 14025
algorithms 14024
Jade 14023
blows 14022
pirates 14021
fleeing 14020
wheelchair 14019
Stein 14018
sophomore 14017
Alt 14016
Territorial 14015
diploma 14014
snakes 14013
##olic 14012
##tham 14011
Tiffany 14010
Pius 14009
flush 14008
urging 14007
Hanover 14006
Reich 14005
##olate 14004
Unity 14003
Pike 14002
collectively 14001
Theme 14000
ballad 13999
kindergarten 13998
rocked 13997
zoo 13996
##page 13995
whip 13994
Rodríguez 13993
strokes 13992
checks 13991
Becky 13990
Stern 13989
upstream 13988
##uta 13987
Silent 13986
volunteered 13985
Sigma 13984
##ingen 13983
##tract 13982
##ede 13981
Gujarat 13980
screwed 13979
entertaining 13978
##action 13977
##ryn 13976
defenders 13975
innocence 13974
lesbian 13973
que 13972
Richie 13971
nodes 13970
Lie 13969
juvenile 13968
Jakarta 13967
safer 13966
confront 13965
Bert 13964
breakthrough 13963
gospel 13962
Cable 13961
##zie 13960
institutional 13959
Archive 13958
brake 13957
liquor 13956
feeds 13955
##iate 13954
chancellor 13953
Encyclopedia 13952
Animation 13951
scanning 13950
teens 13949
##mother 13948
Core 13947
Rear 13946
Wine 13945
##flower 13944
reactor 13943
Ave 13942
cardinal 13941
sodium 13940
strands 13939
Olivier 13938
crouched 13937
Vaughan 13936
Sammy 13935
Image 13934
scars 13933
Emmanuel 13932
flour 13931
bias 13930
nipple 13929
revelation 13928
##ucci 13927
Denny 13926
##ssy 13925
Form 13924
Runners 13923
admits 13922
Rama 13921
violated 13920
Burmese 13919
feud 13918
underwear 13917
Mohamed 13916
Named 13915
swift 13914
statewide 13913
Door 13912
Recently 13911
comparing 13910
Hundred 13909
##idge 13908
##nity 13907
##rds 13906
Rally 13905
Reginald 13904
Auburn 13903
solving 13902
waitress 13901
Treasurer 13900
##ilization 13899
Halloween 13898
Ministers 13897
Boss 13896
Shut 13895
##listic 13894
Rahman 13893
demonstrating 13892
##pies 13891
Gaza 13890
Yuri 13889
installations 13888
Math 13887
schooling 13886
##bble 13885
Bronx 13884
exiled 13883
gasoline 13882
133 13881
bundle 13880
humid 13879
FCC 13878
proportional 13877
relate 13876
VFL 13875
##dez 13874
continuity 13873
##cene 13872
syndicated 13871
atmospheric 13870
arrows 13869
Wanderers 13868
reinforcements 13867
Willow 13866
Lexington 13865
Rotten 13864
##yon 13863
discovering 13862
Serena 13861
portable 13860
##lysis 13859
targeting 13858
£1 13857
Goodman 13856
Steam 13855
sensors 13854
detachment 13853
Malik 13852
##erie 13851
attitudes 13850
Goes 13849
Kendall 13848
Read 13847
Sleep 13846
beans 13845
Nikki 13844
modification 13843
Jeanne 13842
knuckles 13841
Eleven 13840
##iously 13839
Gross 13838
Jaime 13837
dioxide 13836
moisture 13835
Stones 13834
UCI 13833
displacement 13832
Metacritic 13831
Jury 13830
lace 13829
rendering 13828
elephant 13827
Sergei 13826
##quire 13825
GP 13824
Abbott 13823
##type 13822
projection 13821
Mouse 13820
Bishops 13819
whispering 13818
Kathleen 13817
Rams 13816
##jar 13815
whites 13814
##oran 13813
assess 13812
dispatched 13811
##hire 13810
kin 13809
##mir 13808
Nursing 13807
advocates 13806
tremendous 13805
sweater 13804
assisting 13803
##bil 13802
Farmer 13801
prominently 13800
reddish 13799
Hague 13798
cyclone 13797
##SD 13796
Sage 13795
Lawson 13794
Sanctuary 13793
discharged 13792
retains 13791
##ube 13790
shotgun 13789
wilderness 13788
Reformed 13787
similarity 13786
Entry 13785
Watts 13784
Bahá 13783
Quest 13782
Looks 13781
visions 13780
Reservoir 13779
Arabs 13778
curls 13777
Blu 13776
dripping 13775
accomplish 13774
Verlag 13773
drill 13772
sensor 13771
Dillon 13770
physicians 13769
smashed 13768
##dir 13767
painters 13766
Renault 13765
straw 13764
fading 13763
Directorate 13762
lounge 13761
commissions 13760
Brain 13759
##graph 13758
neo 13757
##urg 13756
plug 13755
coordinated 13754
##houses 13753
Critical 13752
lamps 13751
illustrator 13750
Returning 13749
erosion 13748
Crow 13747
##ciation 13746
blessing 13745
Thought 13744
Wife 13743
medalist 13742
synthesizer 13741
Pam 13740
Thornton 13739
Esther 13738
HBO 13737
fond 13736
Associates 13735
##raz 13734
pirate 13733
permits 13732
Wide 13731
tire 13730
##PC 13729
Ernie 13728
Nassau 13727
transferring 13726
RFC 13725
##ntly 13724
um 13723
spit 13722
AS 13721
##mps 13720
Mining 13719
polar 13718
villa 13717
anchored 13716
##zzi 13715
embarrassment 13714
relates 13713
##ă 13712
Rupert 13711
counterparts 13710
131 13709
Baxter 13708
##18 13707
Igor 13706
recognizes 13705
Clive 13704
##hane 13703
##eries 13702
##ibly 13701
occurrence 13700
##scope 13699
fin 13698
colorful 13697
Rapids 13696
banker 13695
tile 13694
##rative 13693
##dus 13692
delays 13691
destinations 13690
##llis 13689
Pond 13688
Dane 13687
grandparents 13686
rewarded 13685
socially 13684
motorway 13683
##hof 13682
##lying 13681
##human 13680
modeled 13679
Dayton 13678
Forward 13677
conscience 13676
Sharma 13675
whistle 13674
Mayer 13673
Sasha 13672
##pical 13671
circuits 13670
Zhou 13669
##ça 13668
Latvian 13667
finalists 13666
predators 13665
Lafayette 13664
closes 13663
obligations 13662
Resolution 13661
##vier 13660
Trustees 13659
reminiscent 13658
##hos 13657
Highlands 13656
Protected 13655
asylum 13654
evacuation 13653
##acy 13652
Chevrolet 13651
confession 13650
Somalia 13649
emergence 13648
separating 13647
##rica 13646
alright 13645
calcium 13644
Laurent 13643
Welfare 13642
Leonardo 13641
ashes 13640
dental 13639
Deal 13638
minerals 13637
##lump 13636
##mount 13635
accounted 13634
staggered 13633
slogan 13632
photographic 13631
builder 13630
##imes 13629
##raft 13628
tragic 13627
144 13626
SEC 13625
Hit 13624
tailed 13623
[...]
